#version: 0.2
ï ¼
ä ¸
ï¼ Į
ã Ģ
ç ļ
çļ Ħ
ä º
Ġ Ġ
æ ľ
ãĢ Ĥ
å ı
å ħ
å ¤
ä »
å ľ
å ®
å Ī
æ ĺ
ä ½
ç Ķ
å Ĳ
è ¿
å °
æ ĸ
æ Ī
å ¹
ä ¹
ä¸ Ģ
å Ĭ
æ Ĺ
Ġ t
ãĢ ģ
å Ľ
æĺ ¯
å į
å Ń
ç »
i n
â Ģ
ĠĠ ĠĠ
åľ ¨
Ġ a
è ¯
äº º
å ¸
å ¾
e r
ä ¼
æ Ŀ
æľ ī
è ®
é Ģ
æ ī
ä¸ į
é ĩ
å ·
è ¡
å ¥
è Ģ
å º
o n
ç ī
å ¼
äº Ĩ
h e
ä¸ Ń
å¹ ´
å¤ §
å Į
å ĩ
æ ķ
ç Ľ
r e
å Ĩ
å ¯
è §
ĥ ½
å Ĵ
æ Ń
å ±
a t
æ Ģ
å ½
è ¦
åĴ Į
Ġ s
ç §
æ °
è µ
o r
æ ł
æ Ķ
æ Ĭ
ç İ
é Ļ
è ĩ
ç ľ
æ ³
ä¸ º
ä» ¥
e n
é ģ
ä¸ Ĭ
å ¿
å İ
Ġt he
é Ŀ
ç º
æ İ
è ´
åĽ ½
2 0
é Ĺ
çĶ Ł
e s
æ ²
è¦ ģ
a n
çĶ ¨
æĪ ĳ
ç Ĳ
æ µ
å ĵ
i t
ï¼ ļ
è¡ Į
ä ¿
æ ŀ
Ġ c
ä¸ ª
i s
å ĳ
æ ĭ
åĪ °
Ġ w
o u
æ ĥ
æĹ ¶
æ ¯
æĹ ¥
ç «
è ½
è ĥ½
åĩ º
a l
åı ¯
ï¼ ī
é Ľ
è¿ Ļ
å ī
ï¼ Ī
æĪ Ĳ
ç Ĥ
å Ł
é ¢
å° ı
a r
åľ °
ä½ ľ
Ġ f
âĢ ľ
âĢ Ŀ
åŃ ¦
ç ½
å ¦
ç ¾
ä¼ ļ
in g
å® ¶
ä ¾
ä¸ ĭ
e d
ç Ń
Ġ p
é ĺ
æ Ļ
æĿ ¥
é «
å Ģ
æ Ħ
è ¾
æ ´
Ġ o
Ġ b
æ ¸
å¤ ļ
ĠĠ Ġ
ä» ĸ
æľ Ī
n d
é ĥ
åı ĳ
æĸ ¹
åĪ Ĩ
æ ¬
åŃ Ĳ
æ Į
æ Ľ
èĩ ª
äº İ
å° ±
é ķ
åħ ¬
l e
æ ±
å¯ ¹
ä¹ Ł
Ġ m
i c
è ·
è Ĥ
è ī
æľ ¬
é« ĺ
çĲ Ĩ
i on
å ģ
æĸ °
éĥ ¨
ä¸ ļ
o m
ç ¬
ä¹ ĭ
æ³ ķ
Ġt o
ç ¨
å· ¥
ç Ļ
Ġ d
Ġ in
a s
åĲ İ
å¸ Ĥ
ç ®
è Ī
ç ķ
å¤ ©
Ċ ĠĠĠĠ
éĿ ¢
ä¸ »
æ ı
åĬ ¨
åħ ¨
ç ´
å »
Ġo f
è ģ
é Ĥ
è ¶
ç¾ İ
ä» ¬
è¿ ĩ
æĸ ĩ
ç ©
é ļ
èĢ Į
Ġa nd
åĲ Į
é ¡
å¥ ½
æĢ §
ç Ī
æľ Ģ
é £
åħ ¶
e l
ç Ł
åĬ Ľ
é ĥ½
å¥ ³
å¾ Ĺ
åĲ Ī
å §
çİ °
åī į
ç Ħ
çĶ µ
æī Ģ
çŃ ī
Ġ h
e t
20 1
åº ¦
å¿ ĥ
å® ļ
æľ º
åĬ ł
å Ŀ
åĮ ĸ
å¼ Ģ
è¿ Ľ
ä¸ İ
| |
å¦ Ĥ
ä½ ĵ
éģ ĵ
ç ¤
s t
äº ĭ
Ġt h
èĢ ħ
en t
é ¦
çľ ĭ
è ¢
ç¬ ¬
çī ¹
ä½ ł
å¤ ĸ
è Ĭ
è £
è¯ ´
i l
åĵ ģ
ç» ı
æĥ ħ
æ į
ç ³
c t
åı Ĭ
å® ŀ
å ķ
çī ©
è °
r o
0 0
æ° ´
ç½ ĳ
éĩ į
ä½ į
è ¨
é »
åĲ į
å½ ±
è Ĳ
å £
å ĭ
éĢ ļ
éĩ Į
åĽ ł
æ ģ
ä¸ ī
ç ł
1 9
è¡ ¨
Ġ re
é ľ
ç Ŀ
Ġ ||
æ Ł
ç ¥
æķ Ļ
äº §
æī ĭ
Ġ n
å¹ ³
è ĭ
åĪ ©
æ ¶
åĨ ħ
å¾ Ī
éķ ¿
ãĢ ĭ
å ¢
ãĢ Ĭ
åħ ¥
ç ±
a m
éĩ ı
èī ²
çĽ ¸
æı Ĳ
çĦ ¶
éĹ ´
å» º
è¢ «
è ¥
æ¯ Ķ
Ġ l
ç ģ
éĩ ĳ
æ ¨
çĤ ¹
èµ ·
åĮ º
ä½ Ĩ
i d
ç³ »
æ ¼
æľ Ł
åħ ³
æĺ İ
å ĸ
æ° ĳ
è¥ ¿
é ħ
åĪ ¶
ä½ ¿
ä¿ Ŀ
ä¸Ģ ä¸ª
è¿ ĺ
çĽ ®
æ¬ ¡
. .
çĤ º
Ġ S
å® ī
æĸ ¯
åı °
æĦ ı
åı¯ ä»¥
çī ĩ
ç§ į
ç¨ ĭ
æĽ ´
å¼ ı
ä» £
æİ ¥
åİ »
å° Ĩ
æŃ ¤
æ ·
åľ º
æ ¡
æķ °
åŁ º
æŀ ľ
æĶ ¿
å¸ ¸
åº Ķ
ç ĥ
Ġ T
æĪ ĸ
i m
ç® ¡
çĶ ±
è® ¾
åľ ĭ
å± ķ
è§ Ĩ
æŃ £
è· ¯
é Ł
Ġ e
è º
ç ²
o t
æµ ·
é Ķ
ĠĠĠĠ ĠĠĠĠ
èµ Ħ
ç ¦
å½ ĵ
Ġ I
äº Ľ
é ĸ
æ º
o l
ï¼ Ł
è ĥ
è½ ¦
Ġ C
åı £
éĤ £
ä¿ ¡
çº ¿
é ©
ç ¼
a c
Ġ g
èĢ ĥ
äº Į
ç§ ĳ
æĺ Ł
è Ļ
a d
v e
æĥ ³
ï¼ ģ
- -
åı ¸
ä» »
Ġ A
ï¼ Ľ
é Ĵ
i g
s e
æ´ »
èº «
å ł
Ġ (
çĿ Ģ
è ³
u r
è ª
ç Ĺ
åĮ Ĺ
å¹ ¶
äº ¤
a y
çľ ģ
u t
20 0
è İ
Ġ y
å± ±
æĹ ł
åĳ ĺ
çĲ ĥ
ç µ
åİ Ł
åĬ ¡
1 0
åį Ĺ
Ġ =
é ĵ
èĢ ģ
å ŀ
æ² ¡
è§ £
åĽ ¾
ä» ¶
è® ¡
ç« Ļ
çŁ ¥
ä» İ
ä¹ Ī
è į
å° ĳ
æĦ Ł
è Ħ
o w
ç ı
åį ģ
ç« ĭ
æ »
ç ¶
åģ ļ
Ċ ĠĠĠ
åħ ĥ
Ġ is
åı ª
æ Ĵ
æµ ģ
å Ļ
ç ¡
ãĢ Į
éĻ ¢
Ġf or
åŁ İ
èĩ ³
å· ²
ãĢ į
æ ĵ
æĪĳ ä»¬
æł ¼
æ ®
åħ ĭ
ĊĠĠĠĠ ĠĠĠ
å ¨
æĬ Ģ
ç© º
æľ ĥ
é¢ ĺ
æ £
å· ±
ç ĸ
çľ Ł
é ª
ä¸ ĸ
å° Ķ
v er
è ²
at ion
é ł
æł ·
æ Ĥ
æĸ ¼
è ĳ
æĸ Ļ
åĲ ĳ
c h
ä¸Ń åĽ½
i f
çĽ ´
æĻ Ĥ
åķ Ĩ
èĩª å·±
l y
æľ ¯
åħ¬ åı¸
åĽ ŀ
æĶ ¾
å¾ ·
Ġ on
éľ Ģ
Ġ M
æľ į
åı Ĺ
ç» Ł
åĲ Ħ
éĹ ®
Ġy ou
Ġb e
åŀ ĭ
Ġs t
åĻ ¨
ç ĭ
Ġ u
ç» ĵ
o d
å ²
æį ®
æ ¢
ä¸ ľ
åı Ĥ
ä¸ ¤
æ ¥
å¸ ĥ
è¿ ĳ
è Ń
éĽ Ĩ
c e
æĮ ģ
Â ·
æ° Ķ
æī ĵ
åħ ī
å Ķ
u l
å ĥ
å Ħ
æĭ ī
Ġ P
å¤ ª
a g
t h
æĶ ¶
è Į
è ±
é£ İ
åħ ±
æ± Ĥ
å½ ¢
å¤ Ħ
å® Į
éĢ ł
ç¤ ¾
i r
è ©
å·¥ ä½ľ
åħ Ī
t er
ç¤ º
å¼ º
ä¹ Ĳ
è¿ Ĳ
çł Ķ
it h
éĹ ¨
åį ķ
æ¯ ı
åĮ ħ
è ı
å¸ Ī
åı ĺ
å· ŀ
æĮ ĩ
åĽ Ľ
ä¼ ł
æĢ »
ç» Ħ
ç¥ ŀ
æł ĩ
éĢ ī
å¥ ¹
Ġ B
è »
ç ħ
æ² »
å¯ ¼
æº Ĳ
åħ ·
çº §
æ¸ ¸
æ¸ ħ
å¾ Į
å ¡
å® ¹
è® ©
é º
çķ Į
æĬ ¥
è´ ¨
æĶ ¹
çĻ ½
æŀ Ĺ
æ¼ Ķ
è¯ ¥
åĢ ĭ
èģ Ķ
æ ħ
1 2
Ġ Ċ
èĬ ±
æł ¡
Ġth at
ä¸ ĵ
çĪ ±
åĪ Ĺ
çİ ĭ
æķ ´
æķ Ī
éĿ ŀ
åĨ į
ä» Ģ
a p
çĶ ·
æ³ ¨
at e
å Ĥ
å¤ ´
æ²¡ æľī
éŁ ³
æİ ¨
ç± »
es t
ä¾ Ĩ
å£ «
âĢ Ķ
ä» ·
ç ·
åı ĭ
ç» Ļ
å¿ «
è ħ
èĤ ²
è® °
ä½¿ çĶ¨
åĪ «
è¿Ľ è¡Į
a b
è´ ¹
æģ ¯
æĬ Ĭ
åŃ ¸
âĢ Ļ
éĢ Ļ
æī į
é¦ ĸ
è¾ ¾
è§ Ħ
u n
åı ĸ
å® ¢
ä¾ Ľ
é© ¬
Ġw ith
ç² ¾
æĪ ĺ
æ ĳ
æĺ ĵ
ä½ ķ
å¢ ŀ
åı Ī
é¢ ĳ
er s
1 1
e m
å°± æĺ¯
o p
è° ĥ
æĬ ķ
u m
èĪ ĩ
åĬ Ł
ä» Ĭ
ä¸ ĩ
ç© ¶
å® ĥ
å§ ĭ
ä¼ ģ
Ġ D
å¤ ĩ
èĭ ±
çī Ī
Ġ it
å¸ ¦
åĪ Ľ
u s
ä¹ ¦
r i
æĪ ¿
èĬ Ĥ
æ¨ ¡
è¶ ħ
Ġ R
åı į
è¶ ³
Ġc on
åį ¡
è§ Ĥ
Ġa s
* *
æŃ ¥
æ Ĳ
çİ ĩ
åı ·
æŁ ¥
åŃ Ĺ
åĭ ķ
ç± ³
æ ļ
æĶ ¯
æ ¹
æ ©
è£ ħ
éĢ Ł
é Ń
ç Į
k e
éĽ »
è§ ģ
è® ¤
or t
äº ļ
çĹ ħ
æĴ Ń
æ· ±
Ġw h
Ġ H
äº Ķ
Ġ 1
is t
åĨ Ľ
Ġ "
h t
åŃ ©
Ġ W
q u
p e
il l
æ¶ Ī
é¡ ¹
ç Ĭ
æĪ ·
o c
è ¼
Ġ L
ç ¢
Ġa l
es s
Ġ F
é£ Ł
è½ ¬
éĺ ²
âĢ ¦
ĠĠĠĠ ĠĠĠ
é ¾
èĳ Ĺ
éķ ĩ
åŃ ĺ
æ¡ Ī
æł ¹
è® º
éĺ ¿
å± Ģ
åıĳ å±ķ
çĻ ¼
Ġa n
ä½ İ
è Ĺ
ou t
åĦ ¿
an d
è¶ Ĭ
é¦ Ļ
æĹ¶ éĹ´
çĥ Ń
é ¥
å¼ ķ
è¯ Ŀ
æľ ª
å§ Ķ
Ġ v
è¾ ĥ
éĺ Ł
ä¸ Ķ
ä¹ ł
çłĶ ç©¶
åĥ ı
çİ ¯
ç ª
å¹ ¿
åĳ ¨
ã ĥ
åĩ Ĩ
çħ §
è¡Į æĺŁ
éĻ ¤
åį İ
è¯ ģ
èµ °
äº ¬
ç Ĩ
éħ į
e w
re s
Ġ {
Ġp ro
ç½ ®
éĹ® é¢ĺ
åį Ģ
åį ³
éľĢ è¦ģ
å°ı è¡ĮæĺŁ
çĻ ¾
r om
çļĦ äºº
æŀ Ħ
åį ļ
ç ¯
ç®¡ çĲĨ
æĹ¥ æľ¬
å· ´
ç ¿
å¦Ĥ æŀľ
åĬ ©
æĸ ½
èµ Ľ
åĢ Ļ
Ġ N
å¢ ĥ
ç® Ĺ
) ;
è Ĵ
åĳ Ĭ
å ³
ou r
ä¾ ¿
çļĦ ä¸Ģ
åħ į
åº Ĺ
æĿ ĥ
éĻ Ĳ
ä»ĸ ä»¬
a v
ä¼ģ ä¸ļ
æİ Ĵ
è¯ ķ
æ® µ
é¢ Ĩ
ç į
è¯ Ń
ç¡ ®
å ©
Ġd e
ï¼ī ï¼Į
è§Ĩ é¢ĳ
æ ¿
åĩ ł
ä¼ ĺ
a in
Ġ G
éĻ ħ
æĬĢ æľ¯
æĢ Ŀ
Ġ -
å° į
å¿ ħ
o s
æĿ ĳ
åĵ ¡
åĬ ŀ
åĨ ³
ç§ °
åı ²
èĲ ½
ç» ´
æĿ ¡
ç ĵ
åĢ ¼
æİ §
åı¯ èĥ½
é ¤
å° ¼
åº ľ
Ġ r
o re
çģ «
3 0
ä»Ģ ä¹Ī
ç¬¬ ä¸Ģ
èĲ ¥
Ġ or
è¯ Ĩ
å¾ Ģ
ç³» ç»Ł
è® ®
Ġ E
ĊĠĠĠĠ ĠĠĠĠĠĠĠĠ
åĳ ½
-- --
åĮ »
éª Į
ç½ Ĺ
æĢ ģ
åĲ ĥ
e x
er e
ä¿ ®
çľ ¼
è¿Ļ ä¸ª
åį ĩ
éĿ Ĵ
è½ ½
ã ģ
ä¸ĸ çķĮ
éģ İ
Ġa re
æ¬ ¾
è§ Ĵ
éĢļ è¿ĩ
å¤ į
c om
èĤ ¡
çº ¦
ç ¸
å¼ ł
è¨ Ģ
ä½ ı
1 8
ä» ½
æĬ ¤
èĩ ´
åŃ¦ çĶŁ
ç´ ł
éĸ ĭ
Ġc om
å¹ ²
1 5
è¯ ·
ãĢĤ âĢĿ
Ġ 200
å® ĺ
å¤ «
æĺ¯ ä¸Ģ
æľį åĬ¡
åĪ Ļ
ä¸» è¦ģ
am e
åĽ ¢
ç¦ ı
Ġe x
Ġ '
n t
æĻ ¯
åŁ Ł
çĽ ĳ
çŁ ³
åı ¤
w w
l d
é» ĳ
æ¸ ¯
æĿ Ĳ
å¤ ±
å± ŀ
æµ ĭ
æľ Ľ
ĊĠĠĠĠ ĠĠĠĠĠĠĠ
éķ ·
å½ ©
æ´ ²
æĻ ®
å® ¤
è± ¡
çī Į
å¯ Ĩ
m ent
p l
Ġ he
æ² ³
éļ ¾
el f
Ġa t
ç§ ¯
åİ ĭ
ar t
it y
ä¸į æĺ¯
å¾ ®
è§ ī
æ© Ł
åĽł ä¸º
en d
ä¹ ī
æķ ħ
| -
åħ »
åĨ µ
æ± Ł
çĶŁ æ´»
p ort
æ² ¹
æ¯ į
æīĢ ä»¥
Ġth is
ç» Ń
ä»¥ åıĬ
æĭ į
çĶµ å½±
ĠT he
éĩ ĩ
ct ion
æŀ ģ
æĿ İ
æıĲ ä¾Ľ
çı ¾
è «
æ ½
åŃ £
ç¦ »
æĹ ©
ç¶ ĵ
o g
ã Ĥ
u e
ç¾İ åĽ½
æ ĩ
é« Ķ
åŃ© åŃĲ
åľ Ł
é» Ħ
åħ ļ
æķĻ èĤ²
Ġ O
p t
an t
å£ °
a ve
è¾ ¹
åº §
å¸Ĥ åľº
ä¸Ń çļĦ
æĽ ²
ĉ ĉ
æĪ ı
èİ ·
åİ Ĩ
è¿ ŀ
æŃ »
è» Ĭ
æ³ ¢
ig ht
ç¼ ĸ
åĸ ľ
éĸ ĵ
al l
ç ĩ
éļ ı
æĽ ¾
è· Ł
ä¸į åĲĮ
è ŀ
èī º
äº§ åĵģ
åľ¨ çº¿
è®¾ è®¡
åĵ į
å® Ŀ
è¦ ĸ
äºº çļĦ
æ ¦
åº ķ
çº ¢
å®ī åħ¨
u b
åĪ Ŀ
æĺ ¾
Ġ 2
åĪ Ĵ
ä¾ ĭ
éĩį è¦ģ
åĢ ĳ
æ¸ ©
èģ Į
å¥ ĩ
ç« ł
éĥ¨ åĪĨ
åĽ½ å®¶
/ /
æĸ Ń
åį Ĭ
å ĺ
Ġs e
æ» ¡
Ġw e
åĪ ĩ
äºĨ ä¸Ģ
æµ İ
è® ¸
i ve
å·² ç»ı
èª ª
éħ Ĵ
æĹ ħ
ac k
è¯ »
ç´ ¢
é¢ Ħ
çĪ ¾
ä½Ĩ æĺ¯
1 6
Ġn ot
å¤ ľ
u st
åı ĥ
Ġf rom
çİ ©
ç ĳ
éĢ ²
.. .
æī ¾
ç¾ ¤
æĿ ¿
è¯ ¾
è¡ Ģ
ä¼ Ĺ
Ġ }
ä» ĭ
æĻ º
ä¿¡ æģ¯
é Ĩ
å¸ Į
ag e
ä¸ ¦
i v
åħ¶ ä»ĸ
çı Ń
æĹ¶ åĢĻ
Ċ Ġ
åĽ Ń
è¯ Ħ
Ġ å°ıè¡ĮæĺŁ
æĭ ¬
5 0
éĢ Ĥ
Ġw as
åħ Ń
å¸Ĥ éķĩ
ä¾ Ŀ
éĻ į
åĽ¾ çīĩ
æĮ ī
æķ° æį®
æ¥ Ń
æĸ¹ éĿ¢
å¾Ī å¤ļ
i es
å± Ĥ
åĬ ¿
çķ Ļ
åł ´
æĹ ı
åı ¦
å± ħ
ç» Ĩ
çŁ¥ éģĵ
æľ Ŀ
çĶ »
èĮ ĥ
å¤§ å®¶
æĢ İ
æĶ¿ åºľ
å ª
å¤§ çļĦ
éĺ ³
çķ ¶
è´ £
é ²
ar d
åº ·
åİ ¿
æ´» åĬ¨
ä¸Ń å¿ĥ
in e
o k
éĻ ©
u d
å¤ Ł
è¦ģ æ±Ĥ
i z
è³ ĩ
åı Į
å¼Ģ å§ĭ
åĮħ æĭ¬
æĿ ±
äº Ĵ
è ĸ
ç¥ ¨
as s
æŃ ¦
æ£ Ģ
u re
èĪ ¬
åĿ ĩ
å¿ µ
Ġt r
åĲ §
çĬ ¶
âĢĿ ï¼Į
ä¹Ł æĺ¯
æŃ ¢
( )
Ġs h
19 9
ä¹ °
ç· ļ
åģ ¥
çİ° åľ¨
çļĦ æĺ¯
éĢ ģ
e ct
æĸ¹ å¼ı
p er
1 3
on e
Ġb y
äºº æ°ĳ
è ĺ
Ġ if
åĵ ª
é¾ Ļ
è¿Ļ äºĽ
åĳ ³
ur n
åıĤ èĢĥ
äº ŀ
Ġc h
åĨ ľ
1 4
åħ ħ
æīĢ æľī
è¿Ļ æł·
æĥħ åĨµ
åĨ Ļ
åĲĮ æĹ¶
åħ §
éĥ½ æĺ¯
1 7
i al
i p
ä» ¤
å° ĩ
æĸĩ åĮĸ
æĵ į
ç¤¾ ä¼ļ
å¾ ĭ
äº ²
Ġ *
æŃ Į
æ¿ Ģ
Ġ J
å¤§ åŃ¦
ä¸Ĭ çļĦ
2 2
èŃ ¦
éĿŀ å¸¸
æľ ¨
Ġh ave
ç»ı æµİ
ä» ħ
åŃ¦ ä¹ł
åį ĥ
éĽ ·
äºº åı£
in d
è¡¨ ç¤º
åį ´
åħ¶ ä¸Ń
åĪ° äºĨ
æ ¾
åį °
æī ¿
g e
å¿ Ĺ
åĩ »
æĸ¹ æ³ķ
åħ «
å¯ Į
åĲ Ĺ
o st
é ¸
c l
æĤ ¨
æ¬ ¢
å® ³
ç» Ī
è Ľ
å¥½ çļĦ
èĥ½ åĬĽ
ä¹ ħ
çł ´
èĩªå·± çļĦ
æł ¸
åį ı
Ġyou r
= =
è³ ½
æĺ ¥
çĽ Ĭ
å½± åĵį
éĴ ±
è½ »
éĵ ģ
ç® Ģ
çł ģ
f f
èŀ į
æ¸¸ æĪı
å· ®
ç ¹
æĭ ©
çļ ®
ç £
æľī ä¸Ģ
Ġ 201
åħ °
æŀ Ĳ
as t
ï¼ļ âĢľ
è Ĩ
± ä¹Ĳ
ç¶ ²
æ ¤
åĽł æŃ¤
r ou
Ġc an
æ¼ «
a re
éĹ ľ
åĲ ¸
å° Ħ
çĪ ¶
äº «
åĽ½ éĻħ
c on
åģ ľ
el l
ç¬¬ äºĮ
æĪĲ ä¸º
åī ¯
ç½ĳ ç«Ļ
è¿ ľ
2 5
åĽ ´
a k
éĶ Ģ
ä¸ ¾
Ġ le
çŁ Ń
åħ¬ éĩĮ
é Į
ä¸į èĥ½
çŃ ĸ
çº ³
çµ Ĳ
å³ °
ç¾İ å¥³
æľ ĭ
ic e
r a
ä¼ Ĭ
å°ı è¯´
çĽ® åīį
æĻ ļ
éĢī æĭ©
é» ŀ
çª ģ
å½ ķ
å¤ ı
åł Ĥ
è´ Ń
çº ª
èį ¯
çĶ °
èĪ ª
åĲ ¦
åĶ ®
åĲ «
äº ĳ
åŁ ¹
æį ¢
è¿ĺ æĺ¯
åĲ ¬
ul t
ä¹ Ŀ
å¯¹ äºİ
ç« ¯
åĳ ¢
ç§ »
Ġ 0
çĦ ¡
åıĳ çİ°
Ġ U
æĪ °
èĤ ī
çĻ »
ï¼ī ãĢĤ
ç» ĩ
è¿ĩ ç¨ĭ
ou ld
è´ Ł
ä½ľ ä¸º
éģ ĭ
éĤ Ħ
ç» ľ
or m
ab le
è® ²
è¨ Ń
å® £
åĵ Ī
å¯ Ł
çĽ¸ åħ³
åŁİ å¸Ĥ
éģ ¸
ä¸ ĥ
æľĭ åıĭ
ä¸ ¥
ä»£ è¡¨
è» į
Ġ j
è ĵ
é¡¹ çĽ®
2 4
åĨħ å®¹
å¨ ģ
ä¸ĭ è½½
Ġw ill
Ġ K
è¡ £
åĸ Ħ
èī ¯
è¿ °
id e
åģ ĩ
èį ī
âĢĿ ãĢĤ
å¹³ åı°
åĬŁ èĥ½
äº ī
å¯ ¦
æĭ ¿
' ,
i le
åĩ ı
æ² Ļ
i re
ç¨ ®
âĢĶ âĢĶ
çķ ¥
or d
èĴ Ļ
ãĢ Ĳ
ãĢ ĳ
å·¥ ç¨ĭ
åĵ ¥
æĬķ èµĦ
ä¸Ģ èĪ¬
åĮĹ äº¬
å¨ ±ä¹Ĳ
é£ ŀ
é¦Ļ æ¸¯
åħ ´
çĸ Ĺ
an s
im e
Ġp l
in t
éĵ ¶
or k
ä¸ĵ ä¸ļ
çİ¯ å¢ĥ
ä¸Ģ äºĽ
00 0
ä¼ ¼
åī §
å¦Ĥ ä½ķ
çģ £
e ar
2 1
å¸ ®
æ¹ ĸ
å¥ ĸ
å»º è®¾
ä¸ Ŀ
Ġa b
t urn
o b
2 3
å¡ Ķ
åĩº çİ°
æİ§ åĪ¶
i a
æ¨ Ĥ
çĭ ¬
Ġ k
åĲ ī
è´ §
æ´ Ľ
æŁ Ĳ
åıĳ çĶŁ
g et
èĥ Į
è´ ¢
é ¼
ç½ĳ ç»ľ
é¦ ¬
6 0
é¤ Ĳ
4 0
Ġ 3
çĮ ®
å¾ ħ
Ġal l
åħ ¸
åĨ ·
' s
çī Ľ
Ġ im
æ² Ĵ
å¦ »
ä»ĸ çļĦ
ç¬ ĳ
å² ģ
åĪĨ æŀĲ
å¤Ħ çĲĨ
çĶŁ äº§
Ċ Ċ
æ¬ §
ä¼ ¦
éĻ Ħ
a il
è¿Ļ ç§į
æĦ Ľ
ac e
è£ ¡
åħ· æľī
Ġs elf
åĿ Ģ
è½ ¯
å¥ ¥
æīĭ æľº
éĿ ©
Ġs u
T he
æ´ ¾
äº ¿
åħ ©
æī ĺ
åº ı
æī ¹
éĢ £
æł¹ æį®
å· ¦
ä¸Ģ å®ļ
8 0
at h
å¥ Ĺ
e p
ä½ľ åĵģ
åħ µ
è¡ Ĺ
èĥ½ å¤Ł
âĢ¦ âĢ¦
è¿ ½
åį «
o ok
Ġu s
ĠS t
éĩ İ
æĪĳ çļĦ
çĵ ¦
æ± ½
ion s
æĿ ¾
on g
çĨ Ł
ï ½
Ġ V
éļ Ĭ
as e
om e
ig n
éľ ²
èĭ ı
é ½
ç§ Ģ
éĶ Ļ
æ¯ Ľ
p p
å° ½
ç»Ħ ç»ĩ
ç² ī
åĪ »
äºº åĳĺ
åºĶ çĶ¨
ä¸Ģ èµ·
c c
æĶ »
Ġc l
è© ²
èĢĮ ä¸Ķ
ä¼ ¤
i b
é ¬
å¤ ®
é ±
éĢ ı
çľĭ åĪ°
åľ ĸ
æıĲ é«ĺ
æķ ¸
at a
åº Ń
åı ³
éĢ Ģ
he n
e f
Ġa d
æĿ¥ çļĦ
éģ ĩ
æĶ¿ æ²»
èĭ ¥
æ §
ä» ĺ
æĭ ħ
å¼ Ĥ
é¡ »
æ¯Ķ è¾ĥ
ç© ¿
çĶ± äºİ
å· Ŀ
æ£ ®
å¹´ çļĦ
åĭ Ļ
ä½ ³
è®¾ å¤ĩ
Ġd o
Ġre s
çĶ ļ
è¨ Ī
ä½ľ çĶ¨
ĠT h
ic h
_ _
èĹ ı
ä¹ĭ åĲİ
ç Ĵ
çŃ ĳ
201 7
è¾ ĵ
ç» Ŀ
Ġg o
çĽ ĺ
ä¸ ´
çĽ´ æİ¥
it e
è® Ń
ç³» åĪĹ
äºĨ è§£
ç¼ º
Ġh as
åĲĪ ä½ľ
è¿Ļ ä¸Ģ
ä» į
ç» §
åĪ ļ
èı ľ
ex t
çļ ĩ
æĬ Ĺ
ç´ §
åľ° æĸ¹
è®¤ ä¸º
al ly
r y
æĪĸ èĢħ
an ce
éŁ ©
åĨ ł
t o
çļĦ æĹ¶åĢĻ
å¹³ æĸ¹
å®Į æĪĲ
å¦ ĩ
a ke
æģ ©
æŀ ¶
Ġ /
åį Ī
éģ Ķ
at ed
æİ ¢
a ct
2 8
çĶ ¢
æĭ Ľ
ä¸ª äºº
l l
èµĦ æºĲ
åª Ĵ
èĺ Ń
ĠI n
çĶ¨ æĪ·
---- ----
Ġ out
æĽ´ å¤ļ
201 6
å®ŀ çİ°
éŃ Ķ
è¡ ¥
é¦ Ĩ
æ´ ĭ
åŁº æľ¬
æ° ¸
çŃ Ķ
éĵ ¾
åŃ¦ æł¡
å¾ ŀ
ï¼Ī ï¼ī
2 7
ç¸ ½
èİ ±
ä¸º äºĨ
ĊĠĠĠĠĠĠĠĠĠĠĠĠ ĠĠĠ
æĶ¯ æĮģ
å© ļ
æĤ £
å¸Į æľĽ
åŃĺ åľ¨
çĽ Ł
æ³¨ æĦı
å· ¨
2 6
æŁ ĵ
y pe
é Ĭ
èİ· å¾Ĺ
Ċ ĊĠĠĠ
å¦ Ī
éĻ Ī
èĻ ½
åĭ Ĵ
æ¶ ²
æĿĲ æĸĻ
) ,
æ³ °
æĢİ ä¹Ī
æİ Ī
è¡Į ä¸ļ
" ,
Ġre turn
ĊĠĠĠĠ Ġ
å¸ Ń
çĶ ²
Ġcon t
ww w
äº ®
åı «
è ¸
ä¸į ä¼ļ
åĸ ®
Ġ en
çĶ ³
Ġb ut
å¸ Ŀ
è½ ®
æ¯ Ĵ
er t
èĦ ĳ
æ³ķ åĽ½
ä½ Ľ
ä½į äºİ
an g
å² Ľ
Ġu p
åº ĵ
æı Ĵ
åĬ ĩ
é¢ Ŀ
èı ¯
ç¾ ħ
æĩ ī
Ġm e
Ġ âĢľ
= "
ä¹ İ
ç» į
ç» ĥ
ï¼Į âĢľ
åķ Ĭ
é± ¼
ç§ĳ åŃ¦
å¢ŀ åĬł
æĿ Ģ
Ġcom p
ä¸ ½
æ¥ ¼
æłĩ åĩĨ
.. ..
åħ¨ åĽ½
ä¸Ģ çĽ´
S t
å ´
å¡ ŀ
å «
åĽ º
åħį è´¹
åĿ ļ
å¦ ¹
åİĨ åı²
ç§ĳ æĬĢ
è ľ
f orm
éĿ ł
èģ ļ
æ± ī
è® ĵ
æ´ Ĺ
æī §
éĺ ħ
åľ° åĮº
èĪ ŀ
ç¡ Ģ
th er
çģ µ
åĿ Ĺ
ä½ł çļĦ
è¿Ļ æĺ¯
i e
å¸ «
åŁº ç¡Ģ
ç« ¥
éĽ ¨
g h
è¿ĺ æľī
å® Ī
éļ ľ
å® ¡
s o
çµ Ħ
ä»» ä½ķ
å® Ĺ
åį ł
éĻ Ĩ
æħ ¢
åĪ ¤
ac h
8 8
åı ¶
è¿Ĳ åĬ¨
çī Ļ
âĢ ĵ
Ġ [
ä¸į è¦ģ
çĪ Ĩ
çķ «
è¶ £
éĤ£ ä¹Ī
èģ ¯
æ¤ į
åĪ© çĶ¨
ç¬¬ ä¸ī
çļĦ å¤§
åºĶ è¯¥
æķħ äºĭ
çµ ±
æľī éĻĲ
éĹ »
èĤ ¯
èīº æľ¯
å° ģ
ä¹ĭ ä¸Ģ
201 8
è¶³ çĲĥ
åıĥ èĢĥ
åĨ °
å¼ Ł
èŃ °
2 9
ou nt
å»º çŃĳ
Ġn e
er v
éł Ń
å§ Ĳ
åģ¥ åº·
åİ Ĥ
b er
oc k
æł ĳ
çŁ¥ è¯Ĩ
æ° £
ç¾İ åľĭ
éĽ Ħ
åħ³ ç³»
æĸ° çļĦ
æĢ ¥
ar y
å»º ç«ĭ
res s
ä¿Ŀ æĬ¤
èĩª çĦ¶
æķ £
åľ £
å° Ī
å» ¶
åĢ Ł
æ¾ ³
en ce
) .
en s
æį Ł
ãĢĤ ãĢĤ
åº Ĭ
å¾ ģ
ä¹ ³
ç» ¼
èµ· æĿ¥
éĽ» å½±
å° İ
åĿ Ĳ
å° ļ
è Ķ
åĪ ĺ
1 00
æķĻ åŃ¦
ic k
çļĦ ä¸Ģä¸ª
èĢģ å¸Ī
åį ĸ
ç´ Ħ
Ġn ew
éħ ¸
æ¦ Ĥ
) :
Ġs o
ä¼ ĳ
d u
ä¸Ń å¤®
ç´ ļ
èĻ Ł
å¿ħ é¡»
åľ ĺ
äº¤ æĺĵ
å½¢ æĪĲ
èµĦ æĸĻ
Ġ Y
ä½ Ļ
è¿Ľ åħ¥
å¥ ¶
ä¸Ĭ æµ·
èĻ ķ
ç»ĵ æŀĦ
ä¸Ģ ä¸ĭ
ou s
éĩĩ çĶ¨
ver y
è° ¢
éĸ Ģ
éĢ Ĳ
od e
è¯ į
å¹ ¼
ãĢĤ ï¼Į
ä¹ ¡
åĶ ±
æķ ĳ
ç¯ ĩ
ç§ ĺ
åıª æľī
éĢł æĪĲ
éĴ Ł
æ¨ £
é¢ ¨
Ġm ore
ä¸ °
c k
èĮ ¶
é Ĳ
å· ¡
é ¹
å± ĭ
æ± ł
èĽ ĭ
ä»ĭ ç»į
201 5
æĽ ¸
è´¨ éĩı
ar k
ä¸į è¿ĩ
çĶļ èĩ³
å Ĺ
Ġ Ð
æļ ´
ç¨ ³
åĵģ çīĮ
Ġthe y
s elf
201 4
Ċ ĉĉ
å® ľ
åĨ ²
Ġg et
éĴ ¢
è§£ åĨ³
éĽ ª
äº§ çĶŁ
çĹ ĩ
æĳ ©
çİ ī
ä¹ ±
å¤ĸ éĥ¨
åĪ ¥
ä¹ĭ éĹ´
å¸ ģ
Ġthe ir
æĪĲ åĬŁ
æĥ ł
è¿ ª
åįķ ä½į
è®¡ åĪĴ
å¼Ģ åıĳ
r ing
æ· ·
å¸ ¶
ï¼ į
è¯ ī
o se
éģ Ĭ
éģ ¿
ï½ ŀ
ç§ ģ
æ± ¡
åĸľ æ¬¢
è®° èĢħ
çĸ ĳ
I N
è¿ ·
åł ±
ap p
ç¸ £
å®¹ æĺĵ
5 5
ç¨ ±
ation s
åıª æĺ¯
æĺ¯ åĲ¦
é¡ º
èĻ½ çĦ¶
Ġon e
Ġ 4
éľĢ æ±Ĥ
æ¢ ħ
è· Ŀ
å§ Ĩ
r u
è® Ĭ
é Ħ
j ect
æĸ Ĺ
ç ŀ
f er
æľī æķĪ
éĴ Ī
7 0
è® ¯
Ġ #
Ġm y
ä»Ĭ å¤©
æĸĩ çĮ®
ä¸¤ ä¸ª
å¹ ķ
ĠC h
éĽ ħ
è¡Į æĶ¿
ä¹ĭ åīį
æľº æŀĦ
ent s
éĿ¢ ç§¯
çļĦ äºĭ
æľ Ĺ
ç»ĵ æŀľ
ç» ¿
9 9
ç¦ ģ
å¹³æĸ¹ åħ¬éĩĮ
æĦ ¿
çĳ ŀ
ä¼ ¯
åĤ ³
t e
è³ĩ æĸĻ
è ¬
il d
å® ģ
( '
ä¸į æĸŃ
ä¸Ģ æ¬¡
æķĪ æŀľ
ä¸Ģ æł·
éĶ ®
åİŁ åĽł
ä¸Ģ æŃ¥
åį ±
è· ĳ
çī¹ åĪ«
åĬ ³
åī ĩ
i ke
è£ ½
ä»¥ ä¸Ĭ
Ġ +
çĶµ åŃĲ
ä¿ ĥ
è² »
a u
Ġa r
åħ¨ çĲĥ
æľĢ åĲİ
æ¨¡ å¼ı
I n
ä»· æł¼
æ± ĩ
19 8
æ¢ ¦
äº¤ éĢļ
Ġde f
or y
è¿ İ
äº§ ä¸ļ
éĻ¤ äºĨ
éĿ Ļ
åĢ Ĵ
çĿ £
åı° çģ£
ow n
é¡ Į
æĹ §
è¡ ĵ
# #
å± Ĭ
æĵį ä½ľ
æĿ Ĥ
çĹ Ľ
Ġh is
o v
åĲ ¯
éĽ ¶
re e
èª ŀ
å®¶ åºŃ
æĳ Ħ
3 3
æĻº èĥ½
ç« ŀ
å®ļ çļĦ
ä¹Ł ä¸į
éĺ ¶
è¦ ĭ
æĪĲ äºº
ç¯ Ģ
n e
åĲĦ ç§į
åģ ·
æ±½ è½¦
åı ¥
äº ¦
å®Į åħ¨
ç²¾ ç¥ŀ
it ion
æıĲ åįĩ
ro w
çĦ¶ åĲİ
è° Ī
ç¡ ¬
å¥³ äºº
Ġab out
å¼ ·
æ¯ ķ
æĢ§ çļĦ
éº ½
å¤ª ç©º
èİ «
éĺħ è¯»
ic al
ä¸ ģ
æ¹ ¾
ä¿ Ħ
çľŁ çļĦ
èĪ ¹
èĥ ľ
æıĲ åĩº
é¡ ŀ
201 3
9 0
å¾Ĺ åĪ°
çį İ
éº ¼
æŃ£ åľ¨
çļĦ å°ı
ç« Ł
æ²Ĵ æľī
Ġ our
ç»¼ åĲĪ
Ġm an
æ¶Ī è´¹
in k
æĿ Ł
ç °
çĽ Ľ
åħ¶ å®ŀ
èª į
è§ī å¾Ĺ
å¼ µ
æĪĳ åĢĳ
å¯¼ èĩ´
è© ±
æĿ¥ è¯´
Ġ qu
h er
åĪĽ æĸ°
å¹ ¸
f t
è¨ ĺ
å§Ķ åĳĺ
Ġwh ich
æķĻ å¸Ī
èĲ ¬
çĽĳ è§Ĩ
æĺ¯ åľ¨
éĥ¨ éĹ¨
ç¬ ¦
å±ŀ äºİ
p le
è® ¿
èĤ ¥
æĲ Ń
ä»¥ ä¸ĭ
åıĤèĢĥ æĸĩçĮ®
åķ ı
( "
åĽ °
Ġs c
è®¡ ç®Ĺ
èĦ ¸
Ċ ĉ
åħ³ äºİ
çŃ ¾
åĨ Į
Ġu n
ï¼ī ãĢģ
è° ·
åıĳ å¸ĥ
çĬ ¯
è§ Ģ
çĥ Ī
or s
è´ µ
æĸĩ ç«ł
ç® ±
! !
æĲ ľ
p s
3 6
Ġp er
E R
ç¬ Ķ
ay s
åŃ¦ éĻ¢
ç¾ ©
on t
ä¸Ģ åĢĭ
ä¼ ´
æİ ī
é¡ µ
æİ Į
ç¤ ¼
åĳ ¼
3 5
èĲ ¨
Ġd is
èĭ ¦
åĶ Ĳ
Ġw ork
è½¯ ä»¶
ç½ ª
åī Ĥ
èĦ ±
æĭ ¥
å®¢ æĪ·
æĽ ¼
è¾¾ åĪ°
Ġwh o
å®ŀ éĻħ
ç¿ »
éª ¨
Ġe v
ver s
èĩ º
p ro
æľīéĻĲ åħ¬åı¸
é¡ ¶
é² ľ
ic t
ç§ ĭ
Ð ¾
ä¸ļ åĬ¡
äºº çī©
å» £
åıĤ åĬł
ä¼ł ç»Ł
éł »
æĿ ¨
é¢Ĩ åŁŁ
çĽ ĸ
äº Ī
æľī çļĦ
éº »
Ð °
è¯ º
çĽ® æłĩ
ä»Ĭ å¹´
éĽ» è¦ĸ
å± ¬
Ġ &
æĢ ķ
Ġ :
o ve
èĦ ļ
è£ Ŀ
åıĹ åĪ°
æ½ ®
éĺ ´
e c
Ġt ime
Ġ 5
ç¨ İ
æ°´ å¹³
èĻ İ
åŁ ĥ
re at
ç³ ĸ
Ġ åŁº
è¡Į ä¸º
Ġ <
æĹħ æ¸¸
æĪĲ ç«ĭ
éģ Ń
æ± º
iz e
æ¡ ¥
åĺ ī
å° ¤
çĶµ è§Ĩ
å¸® åĬ©
æĮ ĳ
ing s
4 5
åĪ º
çµ ¦
æĶ¿ çŃĸ
ä¸ ¹
ç¶ Ń
è¿Ļ éĩĮ
æľī äºĽ
ou nd
æµ ª
é¥ °
ç©º éĹ´
s h
è Ŀ
ä¸Ń åľĭ
èĪ ī
æı ¡
èģĶ ç½ĳ
å¼Ģ å±ķ
åķĨ åĵģ
éĩĳ èŀį
é¡ ¾
å³ ¶
åľ Ĵ
äºĭ ä»¶
æľĢ æĸ°
n ame
Ġs p
e v
äº ¡
çĪ ¸
l o
çĿ ¡
åİ ħ
el y
æĸ¹ æ¡Ī
a x
åī µ
æĹł æ³ķ
æīį èĥ½
æģ ¶
æİ¥ åıĹ
ç» ©
çĸ ¾
Ġan y
åĽł çĤº
çį ²
Ġp re
çī¹ å³°
è° ģ
ĠåŁº çī¹å³°
æ² ī
è ķ
éĵ¶ è¡Į
201 2
al ue
å® «
æĿ¡ ä»¶
æ²» çĸĹ
Ġs a
Ġ å¤ªç©º
èª ¿
éĢ Ķ
Ġå¤ªç©º çĽĳè§Ĩ
èĢ ³
å¼ ¹
Ġ |
æ° ı
19 7
è´£ ä»»
ç¾İ åħĥ
æģ Ĳ
ãĢĭ ï¼Į
è®¸ å¤ļ
æĺ¾ ç¤º
è« ĸ
åĽ½ åĨħ
ä¸ľ è¥¿
æľ «
æ¶ ī
è½ ī
4 4
æŃ£ å¼ı
åıĺ åĮĸ
è¿ ħ
ç»§ ç»Ń
æĬ ĺ
åĥ ¹
åģ ı
æĮ ¥
æ° §
åħ Ĵ
åľ Ī
åº Ĩ
é² ģ
ĊĠĠĠĠĠĠĠĠĠĠĠĠ ĠĠĠĠĠĠĠĠ
å½ Ĵ
ä½į ç½®
çĨ ±
ç¥ ĸ
æĿ ¯
ï¼ İ
ä¸į ä»ħ
ç ĺ
åĮ» éĻ¢
æĪ ²
èı ²
éĿ¢ çļĦ
è´ Ŀ
ä» ª
åŁº éĩĳ
åħ³ æ³¨
çĶ¨ äºİ
æ¸ Ĳ
åĪĹ è¡¨
åĬ ª
è® ¨
æĿ¥ æºĲ
Ġy ear
un ction
éĩ Ĭ
is h
è¾ ĳ
è´Ł è´£
i an
æ» ĳ
éģ Ĺ
ä»· åĢ¼
ç»ı è¿ĩ
å² ¸
è§ ¦
Ġal so
å· §
ub l
å° º
ç®Ģ åįķ
å¥³ æĢ§
ä¹Ł æľī
åĩº æĿ¥
éĽĨ åĽ¢
ol d
p ut
æļ Ĺ
æĦŁ è§ī
å¯ »
éļ Ĩ
è¯ ¢
æĪĳ åĽ½
æ¢ Ŀ
ir st
å¹ ħ
å¥ §
ä¿Ŀ æĮģ
éĺ »
åĪĨ äº«
æĺ ł
æĸ¹ åĲĳ
è³ ª
èĻ ĳ
è· ³
å·¥ ä¸ļ
Ġa g
å¢ŀ éķ¿
æľī åħ³
éļ Ķ
éľ ĩ
é£İ éĻ©
3 1
æĸ° éĹ»
æĹ¶ ä»£
æī ©
åıª è¦ģ
è¦ ª
æĥ Ĭ
çģ ¯
Ġt e
èī ¾
é¬ ¼
äºļ æ´²
O N
éģĭ åĭķ
è¿ĩç¨ĭ ä¸Ń
æĢ ª
æ³ķ å¾ĭ
æ¨ Ļ
ĠI t
åĩº çļĦ
åħ± åĲĮ
åı¦ å¤ĸ
ä¼ °
éļ Ľ
é¥ ®
i ew
çĶŁ çī©
èģ Ĭ
åĸ Ŀ
æĬ ½
éļı çĿĢ
è¡¨ çİ°
çº ¸
æ ª
s s
éĤ ¦
è¯ ¯
u p
éĲ µ
ç· ¨
Ġw hen
é» ĺ
åĿ ¦
é£ ¾
æı ı
è§Ĥ çľĭ
å¤§ åŃ¸
é¸ ¡
== ==
ç»ĵ åĲĪ
åĨ³ å®ļ
åĨ ¬
æ Ĩ
æĪĲ æľ¬
æľĢ é«ĺ
o ol
Ġp art
åĩº äºĨ
% ï¼Į
t r
6 6
o y
é ŀ
å¹¶ ä¸Ķ
g r
å© Ĩ
â Ĩ
åĦ ª
æĹ Ĺ
Ġ âĢĵ
æĴŃ æĶ¾
ä¾ §
è´ ´
ul l
åĿ ı
åĬł åħ¥
æĢ Ģ
æĬ ĵ
ä¸į åı¯
çĭ Ĥ
Ġs ome
æĶ¹ éĿ©
** **
w e
åĩ Ģ
å½¢ å¼ı
å° ¾
èĨ ľ
æĵ Ĭ
i x
çĽ® çļĦ
åŃ Ķ
Ġo ther
ä½į æĸ¼
å°ı æĹ¶
m er
äºº ä»¬
çº Į
é¢Ĩ å¯¼
åį ·
å® ĩ
ï¼Ī ï¼īï¼Į
Ġthe m
åĤ ¨
åªĴ ä½ĵ
ãĢį ï¼Į
3 7
æĽ´ åĬł
æĹ ¢
èĩª çĶ±
æ¥ ļ
éĢŁ åº¦
éĩı çļĦ
è¶ħ è¿ĩ
æķ ı
Ġo ver
ä½ľ èĢħ
p on
èĥ ¡
è¼ ĥ
åİ ļ
æŃ ²
éł ĺ
nd er
U T
201 1
çĶµ è¯Ŀ
èĴ Ĥ
äº¤ æµģ
åħ³ éĶ®
çĭ Ĺ
å·¦ åı³
æ£Ģ æŁ¥
S E
éĤ Ĭ
ä¹ ĺ
èĵ Ŀ
éŁ© åĽ½
æİ ª
çĽ´ æĴŃ
èĮĥ åĽ´
ä¸Ģ ç§į
ter n
è± Ĩ
Ġbe en
éĤ ®
æŃ ·
å»º è®®
3 8
è¿ĳ åľ°
æĤ£ èĢħ
S T
çļĦ è¯Ŀ
cl ud
çħ§ çīĩ
è« ĭ
éĥ½ æľī
Ġ .
ç£ ģ
Ġth ere
æ¡ ĥ
éĺ µ
é» ĥ
çĥ Ł
åº Ħ
éĸĭ å§ĭ
ï¼Ł âĢĿ
å¼ ±
åĪ¶ åº¦
æĻĤ éĸĵ
ä¼ļ è®®
ä¸įåĲĮ çļĦ
å®ĺ æĸ¹
å¿« éĢŁ
æľª æĿ¥
è¾ ¦
å¸ ķ
åıĤ ä¸İ
Ġ ro
l ow
ç´ Ģ
æĺ¯ ä¸Ģä¸ª
ç§ Ł
è§Ħ å®ļ
é«ĺ åº¦
é¡ ¿
4 8
Ġk n
n g
t t
è® ¢
a w
ç¼ ©
çĩ ĥ
å£ ¤
èĩª åĬ¨
éĩį çĤ¹
ç´ ¯
å°± ä¼ļ
A T
äº ķ
çķ ª
pe c
ç½ ²
ä¸» ä¹ī
at ch
éĽ ¢
è¯ Ĺ
åĪ Ģ
è© ¦
çĶ· äºº
çĶ¨ çļĦ
åĩĨ å¤ĩ
éŃ ļ
ä»ĸ åĢĳ
èĹ Ŀ
ï¼ģ âĢĿ
éħĴ åºĹ
é İ
et h
Ġh ad
u al
Ġof f
éĺ¶ æ®µ
æŃ£ å¸¸
an c
Ġl ike
èı Į
æ² ¿
çİ° åľº
" "
é¥ Ń
201 0
èį Ĳ
èģĮ ä¸ļ
è± ª
è¯ ¦
ä¸į åĪ°
åıĥèĢĥ è³ĩæĸĻ
è¿ĳåľ° å°ıè¡ĮæĺŁ
é¤ ¨
æ¯Ķ å¦Ĥ
Ġ $
èº« ä½ĵ
äºĴ èģĶç½ĳ
Ġc ol
ä¸ĭ çļĦ
åı° æ¹¾
Ġw ere
æĭ Ķ
ï¼ ı
éŁ³ ä¹Ĳ
pt ion
åĶ ¯
åĪ¶ éĢł
T h
æľĢ è¿ĳ
æĮģ ç»Ń
ä¸Ń åįİ
éĨ Ĵ
éĢļ å¸¸
åħ¨ éĿ¢
èĴĻ å±±
ä¿Ŀ è¯ģ
Ċ ĊĠĠĠĠĠĠĠ
è¨ ±
è¾ Ĩ
ä» Ļ
0 1
) )
7 7
èį £
Ġh er
è ļ
Ġ 6
Ġp e
é½ Ĳ
æ¬ ²
ç¨ĭ åºı
ar g
çĤ İ
Ġf e
èĢ Ĳ
is e
èĥ ŀ
ç¨ĭ åº¦
æ· ¡
ç§¯ æŀģ
æ¬ Ĭ
è£ ģ
åĤ Ļ
åł ¡
æĮī çħ§
æľĢ ä½³
s c
ä¸į å¾Ĺ
åĢ į
åľ Ĩ
éĵ¾ æİ¥
åħ¨ éĥ¨
A R
å¿ĥ çĲĨ
å¨ ĺ
å¦Ĥ æŃ¤
pe ct
åıĸ å¾Ĺ
é» ¨
åĪĨ éĴŁ
at er
èģĶ ç³»
Ġw ould
ri b
Ġwh at
is s
en c
Ġ //
ke y
å¹´ ä»£
s et
éķ ľ
è¦ º
èģ ²
éĮ Ħ
s p
éļ Ĳ
æľŁ éĹ´
æĽ ¿
çĶŁ çļĦ
å± ı
æ¯Ķ èµĽ
le ct
æĪĳä»¬ çļĦ
è¦ĸ éł»
æķ° éĩı
éĨ «
èİ ī
ad e
æĿ¥ èĩª
è¿Ľ ä¸ĢæŃ¥
åħ ¼
ig h
Ġth an
æ³ ¡
r it
éĶ ĭ
è¿ Ŀ
ä»» åĬ¡
an ge
å¯ º
å¾ Ħ
çĩ Ł
æİ¨ èįĲ
å¡ ĳ
æķ´ ä¸ª
éĻį ä½İ
æĵ ļ
i o
Ġ 10
å¨ ľ
Ġ 20
å®ŀ æĸ½
å¤§ åĪ©
æ³ ½
æ¢ ģ
Ġp r
Ġ 19
èĢ ¶
Ġd es
æ³ Ľ
è¯¾ ç¨ĭ
ä¾ µ
ç± į
åĪ ¸
çľŁ æŃ£
é¾ į
ä½ĵ ç³»
å¼ķ èµ·
å°ı ç»Ħ
æĥ³ è¦ģ
æľĢ ç»Ī
åŁ¹ è®Ń
åĬł å¼º
çĶŁ åĳ½
èī² çļĦ
æĬ¥ åĳĬ
ĠW e
çº ¯
å°ĳ å¥³
åħ± åĴĮ
éł ħ
å®ŀ éªĮ
èŃ ·
ç¼ ĵ
æ¢ °
ä¸» ä»»
w o
ä¸¥ éĩį
ç»ı èĲ¥
çĦ¶ èĢĮ
æħ §
Ġj ust
ç´ ħ
è´ ¥
æł¸ å¿ĥ
æ´ ¥
æľĢ å¤§
L E
Ġad d
æľī äºº
éĢ ¼
åŃ ķ
éĢ£ çµĲ
æĪĲ çĤº
ar am
o int
è¡Į çļĦ
ä¸į å°ĳ
at es
ä¸ĵ å®¶
è© ķ
éĶĢ åĶ®
åħ· ä½ĵ
æĪ ª
201 9
è£ ¸
Ġne ed
æĭ¥ æľī
çĶ³ è¯·
ä½ĵ éªĮ
3 9
i el
å° Ĭ
çİ° ä»£
åİĭ åĬĽ
he d
çļĦ éĹ®é¢ĺ
p h
é¼ ĵ
èĲ Ĭ
èĢĥ è¯ķ
åĿ Ľ
èµĦ éĩĳ
èµ Į
æ¡ £
r or
éĬ Ģ
ãĢį ãĢĤ
èĪ Ĵ
åĬª åĬĽ
åĳ Ī
Ġin to
åĪ¶ ä½ľ
ä» ģ
çĬ¶ æĢģ
Ð¾ Ð
: //
æ³ ī
è¿Ļ ä¹Ī
è¡ ¡
ç« ¹
n ing
c re
ç»ı éªĮ
çĥ §
æĹ ĭ
éĵģ è·¯
3 2
Ġn o
ä¸į çŁ¥éģĵ
åĽł ç´ł
å¥¹ çļĦ
åĮĸ çļĦ
èį ·
i ent
çı ł
æ´ ŀ
èĻ ļ
Ġ ï¼Ī
ç© į
æĸĩ ä»¶
éĤ£ äºĽ
é¢ ľ
å® ½
åĪ ·
f ter
éģ¿ åħį
rou nd
åº Ł
å¼ Ĺ
èģĶ åĲĪ
èģ ·
è¨ Ĭ
æļ ĸ
åŁ¹ åħ»
æĻ® éĢļ
æ¯ı å¤©
Ġ el
æŃ¤ å¤ĸ
æĹ ģ
åľ° åĿĢ
åı¦ ä¸Ģ
éĽ Ļ
Ġas s
çĴ °
å¤ļ çļĦ
è· ¨
æĪ ´
op le
æ¶ ¦
æ² ĥ
æĢ§ èĥ½
l es
è§Ħ åĪĴ
~ ~
â Ĺ
åĲ Ľ
im port
æ¥ µ
çļĦ æĸ°
å½± éĻ¢
è² ł
æ´ ģ
èĦ Ĥ
od el
ãĢĤ âĢľ
å¥ Ī
è ¹
ĠĠĠĠ Ġ
3 4
æĭ Ł
åĩı å°ĳ
æ¹ ¿
å® ¿
çª Ĺ
åĲİ çļĦ
èĭ± åĽ½
åįģ åĪĨ
v el
æ¯ «
åı¯ æĺ¯
æľ ±
çľ ¾
åŃĲ çļĦ
æ¶ ¨
å®ī è£ħ
å¯Ĩ åº¦
ubl ic
ä¾ĭ å¦Ĥ
çľĭ çľĭ
å ļ
è°ĥ æŁ¥
é¦ĸ åħĪ
è¿Ļæł· çļĦ
å½ĵ æĹ¶
ä¿Ŀ éĻ©
è¶Ĭ æĿ¥
èĢĥ èĻĳ
æľº ä¼ļ
éŁ ĵ
Ġa m
åĮº åŁŁ
åĢ «
Ġs et
ç¾ Ĭ
Ġcom m
å® ĭ
èĳ £
çĸ¾ çĹħ
Ġin d
éģ į
æ£ Ĵ
è¦ ı
é ³
è¶ĬæĿ¥ è¶Ĭ
Ġu se
æĸ½ å·¥
æ» ¿
åįļ å½©
æĩ Ĥ
Ġre c
Ġsa id
éĢ² è¡Į
èī² æĥħ
åĲ ´
Ġm ay
0 2
åĭ ĩ
Ġa cc
é£Ł åĵģ
Ġa pp
éĥ İ
ä¼ Ļ
åį Ķ
7 5
ä¹¦ è®°
å¹ ¾
åĩº çīĪ
ä½ĵ èĤ²
åħĪ çĶŁ
åĪ ĳ
% ãĢĤ
åĩ Ŀ
æı ´
åıª èĥ½
æģ ĭ
çĲĨ è®º
ä¸Ń æĸĩ
Ġre qu
éļ ¨
as h
è¦ Ĩ
åĵª äºĽ
è¿ĩ åİ»
æº ĸ
åıĬ æĹ¶
æī§ è¡Į
å¤§ åħ¨
åĪĨ åĪ«
âĢ ĺ
Ġf irst
åľĭ å®¶
Ġit s
ç´ į
äºº ä½ĵ
åı ¬
ä¸Ģ å¹´
ä¸ĭ æĿ¥
çĲĨ è§£
c ess
é §
éĴĪ å¯¹
æĢĿ æĥ³
if ic
åģ ¶
æĿ ľ
èħ Ĳ
æ¸© åº¦
en er
è§ Ī
æ® Ĭ
ç¹ ģ
è§Ĵ èī²
æĭ ľ
Ġ i
ç£ ¨
æķĻ æİĪ
éĩįè¦ģ çļĦ
å·¡ å¤©
è² ¸
å§Ķåĳĺ ä¼ļ
çģ °
èĥ ¶
è² ¬
å½ĵ çĦ¶
è§Ħ æ¨¡
å®Į æķ´
å¢ ¨
æĿ °
å¿ Ļ
çĵ ľ
C h
ç¼ĸ çłģ
éĥ½ ä¼ļ
éģĬ æĪ²
I C
æĬ µ
å¤ļ å°ĳ
å¿ ĺ
æĮ ¯
æį ·
åĩ ¡
ä¿Ŀ éļľ
æ¦ ľ
Ġim port
è°ĥ æķ´
Ġh ow
Ġb u
è¿Ĳ è¡Į
Ġ @
æ³¨ åĨĮ
è´ ¸
å¹¶ ä¸į
å¨±ä¹Ĳ åŁİ
èĭ Ĺ
å¾ Ĳ
é© ¾
å·¥ åħ·
å°¤ åħ¶
æī İ
å§ ĵ
å£ ģ
è· µ
è¯´ æĺİ
ä¸ĸ çºª
åĬ ±
6 5
ĠTh is
èħ ¿
o x
åĲĮ åŃ¦
ĠH e
èĤ Į
Ġcon st
ï¼Ī ï¼Į
å¤ĸéĥ¨ éĢ£çµĲ
çº ·
éĢ ĥ
èĢħ çļĦ
Ġhe l
æ¯ķ ä¸ļ
åĴ ĸ
ç¼ ĺ
o od
æĺİ æĺ¾
æ³ ¥
m s
iel d
æķ° åŃĹ
æĶ¶ åħ¥
y st
åī ĳ
ç´ «
çī¹ çĤ¹
æĥ ¯
éĻ ³
ä¸» é¢ĺ
ç¦ı åĪ©
å¹ »
e k
Ġe m
åĿ ¡
èĥ ¸
çĦ ¦
è¼ ī
åĢ º
é«ĺ çļĦ
èĥ İ
] ,
èģ ĸ
æĬ¥ éģĵ
d ay
è¯Ń è¨Ģ
çµ Ĥ
ç»Ħ æĪĲ
èŃ ī
åķ ¦
éĹ Ń
çĶ ľ
åį ¢
è³ ¼
å¢ Ļ
èµ ı
200 9
i ous
it t
çļĦ é«ĺ
æĺ¯ä¸Ģ ç§į
éŁ³ æ¨Ĥ
è¿ Ķ
) ï¼Į
è ¤
æĻ ¶
ä¼ ¸
ä¸ª æľĪ
Ġpro v
è· Į
ĊĠĠĠĠĠĠĠĠĠĠĠĠ ĠĠĠĠĠĠĠ
éĻĦ è¿ĳ
æ¶Ī æģ¯
re d
ç¿ Ĵ
Ġb l
æ½ ľ
åĬĽ éĩı
çĶŁ æĢģ
ä¼ĺ åĬ¿
-------- --------
I T
èĢ Ĺ
m m
äº¿ åħĥ
Ġon ly
å½ĵ åľ°
ä½ł ä»¬
æľį åĭĻ
ä»İ èĢĮ
å®ĥ çļĦ
A N
Ġpe ople
' :
u g
æĶ¹ åıĺ
åıĤ è§ģ
ä¹ Į
åĬĽ çļĦ
æĹ¶ æľŁ
Ġ/ >
au se
å¯ ¶
os s
Ġin ter
äºº æīį
ç¡® å®ļ
æĮĩ åĩº
éĻ ¸
Ġ 8
è®¾ ç½®
çĽ¸ ä¿¡
éĢĻ åĢĭ
åħ Ħ
éĩį æĸ°
7 8
åŃ Ļ
æĬ ±
y s
åĮĹ éĥ¨
æİª æĸ½
çĸ «
å°± åı¯ä»¥
è´ ·
ä¸Ģ çĤ¹
è´ «
åķĨ ä¸ļ
åķ ª
åħ¬ åħ±
e g
Ð µ
ä¸ĩ åħĥ
æĦı è¯Ĩ
an k
èµĦ äº§
Ġm ake
6 4
åĽ¢ éĺŁ
åĬŀ åħ¬
ç¬¬ åĽĽ
è¨Ń è¨Ī
ãĢĭ ï¼Ī
æķ ¢
æĤ ī
ãĢĭ ãĢģ
çĪ¶ æ¯į
Ġ 9
ç§» åĬ¨
d er
èĪ Ī
çľģ ä»½
( );
èµ µ
å¸¦ æĿ¥
å® ħ
å®¶ éķ¿
æŃ ¡
æ£Ģ æµĭ
' t
å¥³ åŃĲ
åį »
Ġv ar
æī¾ åĪ°
å¥³ åŃ©
n er
åį° åº¦
è¿ «
ment s
æ· »
æ°ĳ æĹı
è¼ ¯
å¤§ å¤ļ
èĤ ¤
Ġa p
èµ «
çĶ· åŃĲ
å±ħ æ°ĳ
ä¿ĥ è¿Ľ
çĤ ¸
åĦ¿ ç«¥
åħħ åĪĨ
åĿļ æĮģ
åĲį çļĦ
æĲ ŀ
å¾· åĽ½
ic es
ï¼ļ ãĢĮ
çļĦ éĩįè¦ģ
çŁ ¿
' )
rou gh
éŀ ĭ
al s
æ§ ĭ
ä» Ķ
éł Ĳ
æĪĲ äºĨ
æł· çļĦ
ĠU n
æ¬ £
m an
è¢ ľ
é¢ Ĺ
å¹³ åĿĩ
éĻ ·
R E
é£Ł çī©
Ġa ct
äºĮ åįģ
ç¤¾ åĮº
è² ·
l ine
äºĭ æĥħ
èĢĮ æĺ¯
ç¨³ å®ļ
å¿ į
ä¸° å¯Į
m in
æµĭ è¯ķ
åĺ ´
å® ¾
åıį åºĶ
4 9
ç¬¬ åįģ
t y
Ġb ack
éķ¿ æľŁ
Ġu nder
æ² Ł
æ»¡ è¶³
ä»¥ åĲİ
çı į
é£ Ľ
è¢ ĭ
n c
ĠP ro
s on
p r
åĨį æ¬¡
éĽ £
Ġs he
èµ ¢
åĳĬ è¯ī
éĢĤ åĲĪ
çļĦ æĥħåĨµ
ic s
ç½Ĺ æĸ¯
6 9
è£ Ĥ
æĸ¹ ä¾¿
æĮ Ĥ
ä¸º ä»Ģä¹Ī
æİ¨ è¿Ľ
éŃ Ĥ
ä¸» å¸Ń
é© ¶
Ġb et
éĿĴ å¹´
è´ ¦
i k
å¯ Ĵ
æī ¬
or ld
æµ ®
çī¹ èī²
o ver
çļĦ åľ°æĸ¹
å¼Ģ æĶ¾
at ing
â ĳ
ä¸Ĭ å¸Ĥ
åľĭ éļĽ
åĪ Ĭ
è¡Į åĬ¨
Ġ 7
è® Ģ
æĪĺ çķ¥
ç² Ĵ
ä»¥ æĿ¥
è½ ¨
åĸ ·
en g
Ġin clud
å®ŀ è·µ
ç° ¡
æµ ĵ
éº ¦
æĪĲ ç»©
å®ī æİĴ
èĬĤ çĽ®
æŁ Ķ
çĵ ¶
æĮĩ å¯¼
e e
åŀĭ çļĦ
è´Ń ä¹°
Ġin t
é» İ
æ±¡ æŁĵ
â ĸ
19 5
f ul
è¸ ª
åĬŀ æ³ķ
æŃ Ĳ
æ¯ı ä¸ª
è¶ ĭ
ä½ ©
ä»ĸä»¬ çļĦ
UT C
ar ch
ä¹Ł åı¯ä»¥
çģ ¾
ĠC om
: :
åģļ å¥½
Ñ ģ
6 8
ç§ Ĵ
Ġ çļĦ
ç«ŀ äºī
èĪ į
Ġkn ow
å¡ «
æĵ Ķ
æº ª
åĮ» çĸĹ
b s
é© Ĺ
è¯ Ĭ
è¼ ķ
é ī
le t
ä¹ĭ å¾Į
çĶ ĺ
å½± çīĩ
è¿Ĳ èĲ¥
it ies
a ir
æ¬§ æ´²
æĦı ä¹ī
è¾ Ľ
åľ° çĲĨ
our ce
Ġf unction
A P
ation al
b l
å² ©
é ĭ
ou gh
å¾ Ĵ
ç§ ¦
è®¤ è¯Ĩ
ç¬¦ åĲĪ
çĪ Ń
å®¶ çļĦ
it s
yst em
èĩª æĭį
çľģ å¸Ĥéķĩ
æł¹ æľ¬
ot h
å¿ Ĩ
æ¿Ģ æĥħ
i ed
çªģ çĦ¶
çļĦ åıĳå±ķ
å®£ å¸ĥ
ä»Ģ éº½
å¹´ è½»
èĪª ç©º
å¼ ĥ
ç¼ĸçłģ ä¸º
a z
Ġd ata
æĶ¯ ä»ĺ
æ¼« çĶ»
Ġo p
ç©º æ°Ķ
è¯ ļ
å° ¿
ç» ķ
çī¹ æ®Ĭ
éİ ®
èĥĮ æĻ¯
200 1
5 00
ar s
E N
ä¼ Ł
Ġn um
re ad
åĲĪ çĲĨ
å¾ ª
Ġg r
Ġm ost
Ð ¸
åĮº ä¸º
èħ ¾
å± ¤
I D
ãĢ İ
åĨħ çļĦ
æĺ Į
æİ¨ åĬ¨
æ³ķ éĻ¢
if e
ä¼ į
ç»ı å¸¸
Ġat t
f ig
20 00
éģĵ è·¯
æ± ¤
æľ¬ èº«
èĩª èº«
å®ĥ ä»¬
ç¾ ½
è®º åĿĽ
åĩł ä¸ª
Ġhel p
ä¿ Ĥ
å¤§ éĩı
Ġpro du
çŃī çŃī
åķ ¡
æĹ ¦
å®£ ä¼ł
æģ ¢
æ¶ Ĥ
å°ĳ å¹´
Ġl ook
æĻ ¨
éĤ Ģ
æĻ ĵ
ä¹Ł ä¼ļ
å¤ª éĺ³
äºº å£«
ri v
ä¸ī ä¸ª
èĸ Ħ
æ¤į çī©
ä»¥ åīį
èµ ŀ
u es
å·¥ èīº
he ck
Ġp h
èĥ½ æºĲ
ãĢ ı
çīĪ æľ¬
0 7
æĪ ¶
è½ ´
ä¸Ģå®ļ è¦ģ
Ġth rough
äºº ç±»
æ¸ ¬
èĭ± è¯Ń
æķĪ çİĩ
æģ Ĵ
åĬł å·¥
è»Ĭ ç«Ļ
Ġre g
éĽĨ ä¸Ń
on s
éŁ ¿
am es
Ġst r
Ġ ãĢĬ
Ġ åľ¨
åīį å¾Ģ
æľº æ¢°
ä¿ Ĺ
åķı é¡Į
Ġt wo
Ġsh ould
èµ ¤
ä¹ ¾
éĤ£ ä¸ª
çĽ Ĳ
ä¸ĭ éĿ¢
åĴĸ åķ¡
Ġe very
çį ¨
ç¬¬ä¸Ģ æ¬¡
çļĦä¸Ģä¸ª å¸Ĥéķĩ
ow er
æ´» åĭķ
èĺ ĩ
çĽ¸ å¯¹
æ® º
æ® ĸ
å¹´ åº¦
st r
è·Ŀ ç¦»
Ġw ant
Ġs erv
çļĦ å·¥ä½ľ
æľº åĻ¨
æ´ ª
il y
åĬ¨ æ¼«
200 8
O R
w ard
æķ ¦
å¯ «
æİĮ æı¡
ht t
åĩ ¯
ad d
çĤ ®
è¡ Ľ
ĠY ou
å½± éŁ³
è§Ħ èĮĥ
åįĹ éĥ¨
æľĢ å¤§çļĦ
éĻ ½
ĠĠĠĠĠĠĠĠ ĠĠĠĠĠĠĠĠ
çľŁ å®ŀ
åĮ ¹
u res
æī £
çİ »
æŃ£ ç¡®
è¿ŀ æİ¥
é ¨
åĬ¨ æĢģ
å¹´ æĿ¥
. _
ĠA r
" :
d ef
ur re
çİ° è±¡
éĥ½ ä¸į
è¡¨ éĿ¢
åĪĽ ä¸ļ
æº «
æį ķ
èĳ ¡
æķ´ ä½ĵ
å½ ¹
ç¶² ç«Ļ
t ype
æĽ´ æĸ°
æī «
ç³» çµ±
çļĦ æĸ¹å¼ı
Ġf in
çĭ¬ ç«ĭ
æ® ĭ
å° ĺ
éĩĮ çļĦ
åĪĽ éĢł
ent er
è®Ń ç»ĥ
è¾ ħ
æİ¨ åĩº
æŃ» äº¡
æī ¶
è° ĵ
Ġ= =
æ¼ ı
çĴ ĥ
ç»ĵ æĿŁ
Ġ æŀĹ
è¯Ħ ä»·
ĠT r
" )
ç§° ä¸º
I S
Ġthe se
çİ© å®¶
ä¹ł æĥ¯
åĪĨ å¸ĥ
ol og
Ġre l
æķ ¬
æµ Ļ
æĳ ¸
éª ĳ
ãĢĤ ãĢį
æīĵ éĢł
æĬ ¢
Ġst art
é¾ Ħ
èĻ «
æħ °
Ġw ell
è¯ ĳ
èľ ľ
w n
æ¿ Ł
é© ±
æĺİ ç¡®
en se
åĬł ä¸Ĭ
ib le
er y
ç»Ĩ èĥŀ
ç¢ º
ra ct
çļĦ ä¸»
æħ ĭ
y le
å¥ ¸
ä¸ĭ åįĪ
è½¦ ç«Ļ
æ¡ Į
ç½ĳ åĿĢ
å¹¼ åĦ¿
åĳĺ å·¥
å¿ħ è¦ģ
åĿ ĳ
åĲ¸ å¼ķ
çµ ²
çī© è´¨
å¿ ł
Ñ ĸ
èµ ¶
çĮ «
çĤ ¼
çĻ¼ å±ķ
éĿ¢ å¯¹
Ġcon s
Ġa c
ãĢĭãĢģ ãĢĬ
å¿ ½
Ġ x
åľ¨çº¿ è§Ĥçľĭ
ĠĊ ĠĊ
å¹¿ åĳĬ
é¦ĸ æ¬¡
åį« çĶŁ
d ata
## ##
ç¢ ³
æĥ ĳ
çģ Ń
20 20
il ity
m l
Ġre m
éº Ĺ
Ġt est
éĦ ī
è¿ ¹
çĲ ´
Ñ Ģ
Ġd if
åĨ Ĵ
çĻ Į
ç¢ İ
åĮĸ åŃ¦
0 5
å®Ŀ å®Ŀ
éĢ Ĵ
åĪĨ ä¸º
åĲĪ åĲĮ
æ¦Ĥ å¿µ
æ·± åħ¥
ãĢģ âĢľ
ç¦ ®
è®° å½ķ
Ġin v
ä¸Ģ ä½į
æ£ ĭ
ow s
Ġpl ay
åĨħ éĥ¨
an n
æ¨ ª
4 7
åĨľ ä¸ļ
Ġs ub
b le
a h
ul ar
æ¸ħ æ¥ļ
å¾® ä¿¡
ä¹ĭ å¤ĸ
Ġ _
æĸ¯ çī¹
åĬ¨ çī©
Ġbe c
éĽ ĸ
æĿĳ èĲ½
çĽ¸ åĲĮ
èº« ä»½
åıĳ æĮ¥
ä» ĵ
å¯ ¸
éĶ ģ
i er
åĨľ æĿĳ
åħ¬ è·¯
åĴ ¨
å¥ ı
çĭ Ģ
çīĪ æĿĥ
éĻĲ åĪ¶
4 6
è®¾ æĸ½
åĲĮ æĻĤ
æ°ĳ ä¸»
ers on
äºĨ ä¸Ģä¸ª
æĺ¯ ä¸į
å£ ĵ
å·² ç¶ĵ
å¯ ¿
Ġin st
u nd
Ġa fter
åĮħ åĲ«
Ġthe n
P ro
éĢ ±
ä¸Ŀ è¢ľ
Ġ 199
é į
ĊĠĠĠĠ ĠĠĠĠĠ
rou p
ä» ¿
æĺİ æĺŁ
æľº åĪ¶
u ch
Ġ )
èĪ °
åħ ¹
ç§ĳ ç½Ĺ
çĥ ı
çĿ Ľ
äººåı£ å¯Ĩåº¦
å°ı èªª
é¡ ¯
å½ »
æĬĢ èĥ½
åľŁ åľ°
çĭ ¼
A S
Ġ ç´¢
ç¢ °
al se
Ġc all
åĬ ĥ
æŀ ª
å° ĸ
ä¸Ģ åĪĩ
çĽ £
A M
id ent
ä»Ģ éº¼
å°± åľ¨
æŃĮ æĽ²
åħ±åĴĮ åĽ½
åĪ° çļĦ
æľĢ å¾Į
t ing
9 5
æĻļ ä¸Ĭ
å¾ ©
èĢģ å©Ĩ
é ı
åľĸ çīĩ
æŁ ±
8 5
Ġs pec
å°ĳ å¦ĩ
åľ ³
f ore
æĺ ¨
ä¸ĭ éĻį
éĥ ¡
éľ į
é ®
è Ł
åİ» å¹´
Ġr ight
çį² å¾Ĺ
Ġc ould
éĥ ĳ
çı¾ åľ¨
åŁº åľ°
åħ ½
C l
ç» ª
éĶ ħ
åľ į
e b
åĩ Į
ä¸» æĮģ
ä¿Ħ ç½Ĺæĸ¯
ä¸į è¶³
åĲį åŃĹ
æĬķ åħ¥
ut e
ç»Ł è®¡
t s
a ult
æ¢ ¯
an y
A C
æĶ¹ åĸĦ
çĪ ·
Ċ ĊĠ
æ¼ Ĥ
ä½ Ĳ
ä¸Ń åħ±
è£½ ä½ľ
æİ¥ å£¤
ä¹ Ļ
å¥³ çĶŁ
he s
åĬ¨ åĬĽ
èªį çĤº
ä¹ ı
e ad
äºº åľ¨
éģ ł
å±ķ ç¤º
æĭ ĵ
åĭ ¤
èģ ŀ
3 00
as ed
éħ ·
çłĶç©¶ å°ıç»Ħ
æ¯į äº²
ç½ĳ ä¸Ĭ
åĲİ æĿ¥
éĤ ª
é ĳ
al e
â Ķ
6 7
å¦Ī å¦Ī
æ» ¤
å®Į åĸĦ
æĹł è®º
è¿Ĳ çĶ¨
èŃ ĺ
æ³ ģ
ä¸Ģ å®¶
ä¹ĭéĹ´ çļĦ
ag es
çļ Ĩ
âĨ Ĵ
åĢ¼ å¾Ĺ
Ð ½
è²ł è²¬
çļĦ æĹ¶
å¾Ģ å¾Ģ
ç¹ ¼
A L
åĴ¨ è¯¢
éĴ ĵ
ç¡® ä¿Ŀ
æĪĲ éķ¿
at or
ĠW h
o f
Ġel se
çī© çĲĨ
åĮ» çĶŁ
åħ¬åı¸ çļĦ
åĩł ä¹İ
æıı è¿°
æİĴ åĲį
è¿Ļ æ¬¡
æĴ ¸
ä¸º ä¸»
çº ¹
ç¨ ¿
çĶµ èĦĳ
[ '
çĽ¸ å½ĵ
è¯ ¸
am p
æĦı æĢĿ
éľ ¸
ç»ı åİĨ
åľ° åįĢ
æĭ ¼
æĭ Ĩ
ĠæŀĹ èĤ¯
æĪĸ æĺ¯
å¹´ åīį
Ġ end
T r
æĴ ŀ
è¿ĳåľ°å°ıè¡ĮæĺŁ çłĶç©¶å°ıç»Ħ
Ġç´¢ ç§ĳç½Ĺ
ĠæŀĹèĤ¯ è¿ĳåľ°å°ıè¡ĮæĺŁçłĶç©¶å°ıç»Ħ
åĶ¯ ä¸Ģ
æĥ³ åĪ°
æķ Į
å¹¸ ç¦ı
èĩº çģ£
Ġcl ass
é»Ħ èī²
åĪ° åºķ
Ġ very
å® ®
n et
è¡¨ æ¼Ķ
x x
çĶ· æĢ§
çĮ ª
ç»Ł ä¸Ģ
çĻ¾ å®¶
ä½¿ å¾Ĺ
è¯ ±
I P
éĮ ¢
é¸ Ł
æ·± åľ³
å¦ ĸ
éĩĳ å±ŀ
Ġwh ere
çļĦ æĹ¶éĹ´
èī ³
ãģ ®
çĨ Ĭ
it ed
æĻº æħ§
Ġgo od
at ive
æĿ Ĩ
æĳ Ĩ
in ess
form ation
ç´ °
x t
æ® ¿
Ġse e
Ġ200 5
ut h
èª ī
çļĦäºĭ æĥħ
Ġw ay
è¾ £
èĦ ī
Ġman y
å½ ¼
çļĦ å¥½
â ĺ
ä»į çĦ¶
æĦı è§ģ
å¢ŀ å¼º
f rom
Ġyear s
çĻ¼ çı¾
çİ Ľ
å¦ Ļ
é£ ¯
in s
re n
ä¼¼ ä¹İ
æļ Ĥ
Ġo b
å¹¿ æ³Ľ
çĽ¸ éĹľ
åį³ åı¯
ak ing
ä¼¦ çĲĨ
ç» ĺ
åħ´ è¶£
Ġst ud
æ² Ī
èĢĮ è¨Ģ
å½ Ī
b r
Ġn ame
ire ct
ãĥ ¼
t on
é«ĺ éĢŁ
èĹ ¤
åįģ äºĮ
Ġs m
å¾ ¡
Ġl ist
åĲį ç§°
çĭ ł
ä¸į å¥½
ä¸Ģ å¤©
Ġ >
åª ½
o o
é¤ Ĭ
t he
åħ ģ
åħ¬ å¸ĥ
æ¨ ĵ
äºİ æĺ¯
äºº å·¥
å£° éŁ³
Ġc re
å¦Ĥ ä»Ĭ
åŁº äºİ
æĿ¥ çľĭ
æ¾³ éĹ¨
è¯¦ ç»Ĩ
9 8
åĲ ¹
æĪĲ åĳĺ
åı° åĮĹ
çľ¼ çĿĽ
éģ ©
æĭħ ä»»
Ġres ult
åį³ ä½¿
è© ŀ
æ¡ ĳ
ä¸Ń èı¯
ä¸¾ è¡Į
å® ı
ç½ ļ
æĭ Ĵ
åıĳ è¡¨
ä»ĸ åľ¨
Ġev en
Ġn ow
ä¿¡ åı·
ç±» åŀĭ
äºĭ ä¸ļ
éī ´
ãĢĭ ãĢĤ
æ¬¢ è¿İ
ç¼ĸ è¾ĳ
æŃ· åı²
åĩº çĶŁ
çļĦ ä¸»è¦ģ
çħ ¤
æ¯ı å¹´
æµĻ æ±Ł
æı Ľ
r ap
å« ©
å¿ĥ çļĦ
éĿ© åĳ½
b ack
åİŁ åĪĻ
ç¿ ¼
ĠS h
è¿Ľè¡Į äºĨ
éĩĩ åıĸ
åº¦ çļĦ
éĥ½ åľ¨
åħĪ éĶĭ
Ġl oc
ç² Ĺ
éĢĲ æ¸Ĳ
å¯¹ æĸ¹
æ¶Īè´¹ èĢħ
åįĩ çº§
èĸ ©
Ġm in
çİ» çĴĥ
æľĢ å¥½
ä¸Ģ åĲį
é«ĺ ä¸Ń
é«ĺ æ¸ħ
çĶµ æ±ł
èĮ ¨
äºĭ æķħ
è« ¾
ï¼Į ãĢĬ
æ¯Ķ ä¾ĭ
å¤§ éĥ¨åĪĨ
. âĢĿ
ot her
æĦŁ åĪ°
éĽ ķ
Ġre ad
è´¹ çĶ¨
çį »
åĢĭ äºº
å¤į æĿĤ
é¼ »
ä¹ ĥ
èĤ¡ ç¥¨
æĺ¯ ä»Ģä¹Ī
åł Ĩ
p os
Ð º
æŃ¤ æ¬¡
æľŁ çļĦ
èĲ Ħ
åĵ ²
N ame
åħį è²»
ä¾Ľ åºĶ
èĤ¯ å®ļ
åįļ çī©
0 9
ãĢĤ ï¼Ī
ä¼ ı
ĠA nd
èħ ¹
åĬł çĽŁ
Ġtr ans
æµ ´
çļĦ æĥħ
Ġ200 6
æ°§ åĮĸ
ĠC l
ĠA l
Ġp ublic
èĳ£ äºĭ
å± Ĩ
E S
Ġa v
æĬĢ å·§
çļĦ å¿ĥ
æĶ¾ åľ¨
Ġ" ""
éĥ Ń
o h
éĻ ¶
i ence
éĩį å¤§
çĪ ½
at ic
èĳ¡ èĲĦ
ĠI f
æº ¶
éħį åĲĪ
al k
åŁİ åĮº
è¿ŀ ç»Ń
æĲľ ç´¢
èĲ¥ åħ»
4 3
pl ic
æ» ´
æµģ ç¨ĭ
ç»´ æĬ¤
å°ı çļĦ
æľº åħ³
in es
å» ī
éģĩ åĪ°
çĲĨ å¿µ
çİ° å®ŀ
Ġ ï¼Į
åĭ ¢
åī ©
ur ing
åįı è®®
' ]
ç¯ ®
æľī æīĢ
æĺ¯ çĶ±
å¹¿ ä¸ľ
ï¼ģ ï¼ģ
åħ¬ å¼Ģ
æľī äºĨ
çĪ¶ äº²
Ġbec ause
å¼ Ħ
åįı ä¼ļ
ç¹ Ķ
v al
o id
æĹ¥ å¸¸
è£ ¤
od y
ä»¤ äºº
ä¼ĺ ç§Ģ
Ġ 12
åĩ ¤
èģĬ å¤©
ä¸į éģİ
å¤ º
çĽ Ī
è§Ĥ å¯Ł
Ġex per
æĸ ·
èº« ä¸Ĭ
åĲĮ æł·
Ġh im
ä¸į çĶ¨
ess age
ä¸į éĶĻ
å¥³ åĦ¿
å¨ ĥ
èĭ± åľĭ
r ay
å¹¿ å·ŀ
4 2
å°± èĥ½
å°Ķ çľģ
Ġl ong
ç¥ Ŀ
åİ» äºĨ
on d
æ¨¡ åŀĭ
äºº å¤§
åĬ³ åĬ¨
å² Ĺ
å¹² éĥ¨
è½¦ è¾Ĩ
ç¤¾ æľĥ
ä»¥ ä¸º
ä¸į åĨį
åľ¨ ç·ļ
Ñ Ĥ
ç±» ä¼¼
am ple
éĢ Ĩ
Ġg u
Ġd own
é© »
urre nt
éĿ Ī
çĤ ī
l ed
I t
as on
ĠA n
éŃ ¯
Ġd on
å¥ ī
éª ļ
ĠN ew
èĩ³ å°ĳ
ä¹Ł å°±æĺ¯
èĢ Ģ
as k
æĸĩ åŃĹ
èĥ ĥ
éĢļ çŁ¥
é£İ æł¼
åŃ¸ çĶŁ
çĽ¸ æ¯Ķ
è®© äºº
åĥ ħ
èµ ĸ
æĺ¯ æĮĩ
åģ ¿
åľ° çļĦ
O S
ç¯Ģ çĽ®
åį¡ çī¹
ä¸ĭ ä¸Ģ
åĪ« äºº
çľ ł
r ic
è´ ¯
Ġd id
åĽŀ åĪ°
èĩª æĪĳ
åĩº åı£
è¡¨ è¾¾
Ġ200 8
al th
çĶŁ éķ¿
ä¸į çŁ¥
å§Ķ åĵ¡
æ¼Ķ åĩº
éĵ º
ou se
æĽ¾ ç»ı
æĸĩ æĺİ
è¿ħ éĢŁ
åĬ¨ ä½ľ
çļĦ æĸ¹æ³ķ
æĳ ĩ
æĻĤ åĢĻ
èĩ £
éĹ ª
200 7
op y
æĽ´ æĺ¯
æĸĩ åŃ¦
éĢĻ äºĽ
éº µ
ä»£ çĲĨ
èĥ Ĩ
é£¾ æ¼Ķ
gr am
æĢ ĸ
åħ¬ åĽŃ
Ġp ol
å¹ «
åĽ½ äº§
åĻ¨ çļĦ
ä¸¾ åĬŀ
è§Ĵ åº¦
Ġa w
å¾Ī å¥½
æģ¢ å¤į
è¢ Ń
e y
æĢ Ĵ
å¥ ´
åĪĨ ç±»
æ¶ī åıĬ
ce pt
æ¸ ¡
v ent
æĮ º
çłĶ åıĳ
åĤ ·
çĪ± æĥħ
èģ ½
è´¸ æĺĵ
åĭ Ŀ
èĳ ī
è¶ĭ åĬ¿
ä¸» è§Ĵ
çªģ çł´
i vers
g an
ä½ĵ çļĦ
éĽ ²
å¦» åŃĲ
id er
åħĥ ç´ł
Ġ Q
0 8
9 7
æĸ¹éĿ¢ çļĦ
f o
åĹ İ
Ġf ind
l og
å» ³
æĵ ¦
æĪ Ī
æģĲ æĢĸ
åĢ ¾
d d
ç¦» å¼Ģ
è¾ ²
us iness
èĲ½ å®ŀ
åıĳå±ķ çļĦ
éŁĵ åľĭ
è° ĭ
èĴ ¸
åģ· æĭį
æŁ ı
çĻ¾å®¶ ä¹Ĳ
åįļ å£«
åľ¨ æŃ¤
äº« åıĹ
åĪ© äºļ
Ġv alue
å¤§ ä¼ļ
è¯ģ æĺİ
çľĭ çĿĢ
çĶ± æĸ¼
th is
Ġ200 7
l and
çĮ Ľ
Ġg reat
at ure
éĽĸ çĦ¶
ç§į åŃĲ
åħ¨ éĽĨ
éĿ¢ ç©į
åĲĦ ä½į
Ġc o
p aram
æĪĲ æŀľ
åıĬ åħ¶
åıĤèĢĥ èµĦæĸĻ
ç¾¤ ä¼Ĺ
æİ¥ è§¦
èĤ¡ ä»½
å¤§ åŀĭ
å½± è§Ĩ
å¥ ĭ
æ· ĺ
æĦŁ åıĹ
æ¼ ¢
ä¸Ĭ äºĨ
åı Ķ
åĵ ¦
éĺ² æŃ¢
éħį ç½®
æĪĲ çļĦ
çĽ´ åĪ°
å¾Ī å¤§
Ġh igh
åĩ Ń
åĦ¿ åŃĲ
åĬŀ çĲĨ
è¿ ģ
t ext
E x
å» ·
Ġ æĪĳ
Ġs er
è®¨ è®º
å¥½ åĥı
çŃ ¹
çĽ Ĵ
èĿ ¶
å¤ļ ä¸ª
æŁ ³
et er
ut ion
çķ °
èĽĭ çĻ½
å¸¸ è§ģ
è½ Ħ
åĸ Ķ
å®¶ æĹı
éĩį è§Ĩ
æĤ¨ çļĦ
çµ ķ
èµ Ķ
çĬ¶ åĨµ
èĩª è¡Į
éª Ĺ
çĥ ¦
æ© ĭ
å¦ ®
åŁ ·
Ð »
p ath
c ol
å¤ ł
Ġdo es
Ġsu ch
Ġex t
çİ¯ ä¿Ŀ
Ġh and
æĹ º
Ġe ff
èµĦ æľ¬
Ġsu p
çĽĳ ç®¡
0 3
ä¹ĭ ä¸Ń
â Ħ
ä¸¥ æł¼
å°± è¦ģ
æĺŁ æľŁ
åģļ åĪ°
e le
èģ ĺ
éĻ ª
èĭ± éĽĦ
p g
Ġbe fore
Ġ ,
ä¸ī å¹´
æĢĿ èĢĥ
ç© ´
æĢ§ æĦŁ
Ġ ed
åŃ ¤
Ġus ed
è§Ħ åĪĻ
çº ½
Ġm uch
æĽ´å¤ļ çļĦ
æľº çļĦ
? ?
ç© Ĩ
å¤§ éĻĨ
æ¶ µ
ãĥ »
å« Į
å¤ĸéĥ¨ éĵ¾æİ¥
åĩ ī
çľŁ äºº
ç»ı çĲĨ
éĢĻ æ¨£
æľ¬ æĸĩ
å¯¹ è±¡
çļĦ åľ°
å½± éŁ¿
ä¿ Ĭ
åľ ¾
å°± åĥı
æł¡ åĽŃ
ç»ı åħ¸
Ġb r
æµ· æĭĶ
æ§ į
è¿ĺ è¦ģ
ä¼ļ æľī
æ¼Ķ åĵ¡
åĪĨ åŃĲ
çĦ Ĭ
z h
èĤ ł
æĦ Ī
ä¿¡ çĶ¨
ar n
Ġf l
Ġf il
Ġ èİ±
äººæ°ĳ åħ±åĴĮåĽ½
å¤ļ ç§į
Ġde c
f ile
ç»¿ èī²
å½¢ è±¡
èİ İ
ç Ģ
èĤ Ŀ
ark et
Ġdif fer
çĤº äºĨ
åĽĽ å·Ŀ
æĤ ²
con d
Ġ èĲĬ
ç¾İ çļĦ
å» ł
è² Ŀ
Ġ* /
âĢĿ ãĢģâĢľ
0 6
. "
Ġth ink
Ġag ain
v iew
æĪ Ĵ
çī¹ å¾ģ
ru ct
æ³ µ
çŃĸ çķ¥
ä¸º äºº
åŀ ĥ
å°Ī è¼¯
åıĺ å¾Ĺ
åº «
ä¸Ĭ ä¸Ģ
æŀ Ŀ
æĪĲ åĵ¡
æĶ Ŀ
åĪ© çĽĬ
cl ass
çļĦ ä¸į
ä¸» æķĻ
æĮ ĸ
Ġ X
b y
0 4
å¢ ĵ
åŀĥ åľ¾
ä¸į äºĨ
ç· ´
æĿ¥ äºĨ
éļ ª
å± ģ
å¤© åłĤ
å¯ Ħ
æĺ Ĥ
Ġp res
åİŁ æľ¬
æī °
htt p
ä½ľ çĤº
èĬ ¯
è² Į
èĴĻå±± å·¡å¤©
Ġ ent
ĠèĲĬ èĴĻå±±å·¡å¤©
Ġèİ± èĴĻå±±
èĭ± æĸĩ
ol low
å¤Ħ äºİ
çļĦ å½±åĵį
å° Ŀ
ç½ĳ åıĭ
åĲ Ĳ
ç¿ °
æīĭ æ®µ
é©¾ é©¶
çľģ çº§
200 6
èĲ¥ éĶĢ
ä¼ĺ åĮĸ
el s
åĲ¯ åĬ¨
æĺ¯ ä¸įæĺ¯
å¤§ å¤§
Ġh ere
ch ool
è´ ¡
ction s
Ġd ay
çĲĥ åĵ¡
èĦ ı
æĴ ĳ
5 8
è¥¿ çıŃ
Ġm on
æĻ ĭ
200 5
åĩº çı¾
è¯ķ éªĮ
è¥¿çıŃ çīĻ
éŃ ı
åħĭ æĸ¯
äºº çĶŁ
æĪĳ æĥ³
çĽĳ çĿ£
ä½ľ ä¸ļ
g ht
Ġl ast
åī ²
èŀ º
åį ĵ
åıĮ æĸ¹
èĶ ¡
ä¸į ç®¡
èī¯ å¥½çļĦ
ire d
å½ĵ åīį
å¾Ī å¿«
å§ ĳ
èĬ ¬
ä¿Ŀ åŃĺ
éł Ī
æĸĩ çī©
æīĢ å±ŀ
åŃ¦ ä¼ļ
Ġ !
é»Ħ éĩĳ
çī¹ åĪ¥
æĮĳ æĪĺ
B A
ç¶ĵ æ¿Ł
çļĦ åīį
Ġb el
åĪ¶ å®ļ
æīĵ å¼Ģ
çļĦäºº åı£
- >
äºº å¦»
çĪ¸ çĪ¸
éł ĵ
==== ====
åºĶ å½ĵ
éĹľ ä¿Ĥ
Ġo wn
è¨ Ĥ
æ³ ³
å¦Ĥæŀľ ä½ł
èħ °
å°¤åħ¶ æĺ¯
ä¾Ŀ çĦ¶
æİ¢ ç´¢
æ¡ Ĩ
um ent
) ãĢĤ
èµ ļ
åĲ Ĭ
å¤© å¤©
åħĦ å¼Ł
åĽ° éļ¾
ä¸ī çº§
åķĨ æłĩ
åľ° çĲĥ
è²¸ æ¬¾
o in
w ork
ä¸Ńåįİ äººæ°ĳåħ±åĴĮåĽ½
ç¨ į
t en
è¼ ª
æľī ä¸Ģä¸ª
åģľ æŃ¢
äºĭ å®ŀ
t est
å°ı åŃ¦
éĩĮ éĿ¢
åħ± äº§
æ± Ĺ
Ġt ake
em ent
èĬ ³
æµ ©
ä¹ Ķ
ç¥ ¥
Ġbe ing
æĪĺ äºī
éĵ ľ
pl ay
Ġb est
æª ¢
æİ ¡
çĩ ķ
in a
è¡£ æľį
çī §
u c
åī ª
éĬ ·
ä¸ ²
æĴ ¤
W h
æ¼Ķ åĶ±
éģ µ
æı Ń
å¦Ĥ ä¸ĭ
åĽº å®ļ
C om
ç¬¬ äºĶ
I d
ç«ĭ åį³
æĿ Ń
æĹ¶ çļĦ
E T
Ġin formation
æĸ ĳ
Ġ ãĢĤ
Ġr un
æľī çĤ¹
æĹħ è¡Į
W e
åĩ ½
åŃ©åŃĲ çļĦ
æ¶ ¯
4 1
è®º æĸĩ
å¤ ¢
å§ ¿
f or
è£ħ ç½®
æ¼Ķ åĳĺ
ch n
ust om
æ» ¨
æĢ» ç»Ł
u ally
åħ± æľī
çº ¤
y p
æµģ éĩı
èĸ ¦
o ad
f e
ãĢ Ģ
çļ® èĤ¤
in ce
Ġt ype
èŃ¦ å¯Ł
åĪº æ¿Ģ
æĮĩ æłĩ
è² ¨
a i
j pg
æĵ ĩ
æĢ§ åĴĮ
éĮ ¯
A r
Ġst ate
å© ¦
æķ° åŃ¦
f l
Ġ1 8
Ġm ade
å¸ ħ
çĬ¯ ç½ª
æĪĲ çĨŁ
æĺ¯ ä¸ª
éģĭåĭķ åĵ¡
h ip
çĶµ åĬ¨
Ġth ose
ç¾İ ä¸½
èĩª æ²»
åŃ¸ æł¡
y m
åĸľ æŃ¡
çĶ· å¥³
e ver
åľ¨ è¿Ļ
è¿Ĳ è¾ĵ
Ġ 11
ath er
Ġm em
Ġfor m
C on
å¤© çļĦ
æ·» åĬł
è¯Ħ è®º
ç»Ŀ å¯¹
æĭ ³
æ·± åº¦
1 000
ä¼ł æĴŃ
5 6
âĶ Ģ
è¬ Ŀ
è¿ħ éĽ·
Ġs im
éĶ ¦
ter s
éĤ »
é¡ į
å¿« ä¹Ĳ
åŃ¦çĶŁ çļĦ
æĦı å¤§åĪ©
çĸ ¼
åĽŀ çŃĶ
ä¸Ģ æ®µ
æ¶Ī éĺ²
çĽ¸ åºĶ
Ġwh ile
çĹĩ çĬ¶
æŀĹ éĤ£
Ġ åį¡çī¹
åģļ çĪ±
åĩº åİ»
ä¸Ģ æĹ¦
Ġp erson
Ġw orld
ç¯ ī
å®ĺ ç½ĳ
æĦŁ æŁĵ
ä¸» åĬ¨
æīĢ åľ¨
éĹ ²
Ġåį¡çī¹ æŀĹéĤ£
åı¯èĥ½ ä¼ļ
çĲ ³
æĥ ľ
åıĳ è¡Į
ä¸¤ ç§į
åĵ Ń
æĽ´ å¥½
æĬ ĳ
ç¢ į
Ġ} ,
èĸ ª
å¤ĸ çļĦ
E D
pon se
æ° Ľ
T ype
èİ ²
C O
æ°ĳ åľĭ
åĬŀåħ¬ å®¤
å£ ®
ä¸ĭ åİ»
éĥ½ å¸Ĥ
iz ed
å·¥ä½ľ çļĦ
å¥ Ķ
æĲ ¬
i et
C ont
å¤© çĦ¶
èĹ ¥
å° ¸
çĹħ æ¯Ĵ
å¼º è°ĥ
è¥¿ éĥ¨
éĤĦ æĺ¯
æ·· åĲĪ
æķ Ĺ
æİ¨ èĸ¦
éĻ µ
im es
ä¸Ģ è·¯
åŃ¦ ç§ĳ
ç»Ī äºİ
re am
æŁ ´
at t
æľī çĿĢ
æ¡Ī ä»¶
åĩĨ ç¡®
éł Ĩ
lo ad
æĤ ł
å±± ä¸ľ
æĭ ĸ
R O
æĢ» æĺ¯
Ġs ystem
Ġ Z
ĠP l
æ¯Ķ è¼ĥ
èĭ ¹
er r
æµĭ éĩı
åľ° ä¸ĭ
Ġf am
åħ± äº«
åľ¨ ä¸Ģèµ·
è¿½ æ±Ĥ
è¸ ı
æĵĶ ä»»
éĩ ĭ
æµ ¦
åĬł æĭ¿
ç¼ Ŀ
ĠF or
eth od
er ror
åħ¶ å®ĥ
g er
çĤ¹ åĩ»
d ate
çĸ ı
æīĢæľī çļĦ
ãĥ ³
5 7
é«ĺ éĽĦ
æ¸ ł
æħ Ī
Ġc ount
å¹¶ æ²¡æľī
ãĢ ī
éĺ¿ å°Ķ
éĢ² åħ¥
U S
æ¶ ħ
åİŁ çĲĨ
éĤ® æĶ¿
èµĦ æł¼
çķ¶ æĻĤ
ĠE x
çº µ
èĹĿ è¡ĵ
éŁ ¦
Ġe ach
æĪ¿ å±ĭ
æĳ ĺ
åįĹ äº¬
ä¸Ĭ è¿°
æ¯ı æ¬¡
åĨł åĨĽ
çļĦ æ°´
çĲĥ éĺŁ
er n
è¦Ĩ çĽĸ
Ġwe ek
è®¡ç®Ĺ æľº
ar m
åĿ Ĭ
æĪĳ æĺ¯
è· ĥ
Ġ key
å¼ķ å¯¼
9 1
çī© çļĦ
å¹ ½
æ¯Ķ è³½
âĦ ĥ
4 00
åĤ ¬
æĶ¶ çĽĬ
ç¼º ä¹ı
èħ ¦
æŁ ľ
ãĢ Ī
ĠA ll
éĶĻ è¯¯
ç«Ł çĦ¶
ä½ Ī
s er
A D
èª ²
çĽ ¾
ĠN one
å¤ļ æ¬¡
å¹³ è¡¡
com m
çī© æµģ
ç³»ç»Ł çļĦ
åĲ¸ æĶ¶
èĭ¹ æŀľ
è£ ľ
Ġs ur
äºº éĥ½
èĬ Ŀ
çĲĥ åĳĺ
è§£ éĩĬ
å®ļ ä½į
6 3
çĽ¸ äºĴ
at us
æĢ» ç»ĵ
Ġo pt
vel op
åı¯ä»¥ åľ¨
åı ī
åĵģ è´¨
a it
æħ¢ æħ¢
Ġ å¤§
ä¹Ł åľ¨
æľº åľº
p ress
çģ Į
iv es
åĪĽ ä½ľ
è§£ æĶ¾
èĩ³ ä»Ĭ
æħ ķ
æĹ¥ æľŁ
ĠR e
al ity
Ġs om
èŀį åĲĪ
éģ¸ æĵĩ
å¾ ½
æĢİ æł·
mer ic
è®¤ çľŁ
å°½ ç®¡
åĲ »
çł Ĥ
å·ŀ å¸Ĥ
ä¸»è¦ģ æĺ¯
o ot
Ġ= >
æĢĿ ç»´
è³ £
æĺ¯ æ³ķåĽ½
ä½ĵ çİ°
æŃ¦ åĻ¨
çĶ¢ åĵģ
èĤ ¿
6 2
æīĭ æľ¯
ä¸ Ī
è¬ Ľ
åĪ¤ æĸŃ
è¡¨ æĺİ
R e
å¤§ å°ı
ot e
çĨŁ å¥³
çĥ ¤
æĵ ģ
P S
éĺ Ģ
èĤ º
æī ®
äºŀ æ´²
éĢĤ åºĶ
èį Ĵ
é¬ ¥
ä¾Ĩ çļĦ
æĮĩ æķ°
æīĢ è°ĵ
æľ¬ ç«Ļ
ä¹± ä¼¦
æĳĦ å½±
Ġm ed
æİ¨ å¹¿
æł ı
or g
å®ŀ åĬĽ
é¢ľ èī²
åļ ´
æĹ¥ åľ¨
åħĪ è¿Ľ
çļĦä¸Ģ ç§į
çķ ħ
æĬķèµĦ èĢħ
Â ł
b e
Ġar t
op e
ç® Ń
åıĺ æĪĲ
Ġd ist
åĭķ çķ«
è´§ å¸ģ
èģĶ çĽŁ
æĶ¹ éĢł
åį± éĻ©
ess ion
Ġnum ber
Ġs ign
æħ ¶
r ight
è¨ İ
è¶ħ çº§
is ion
æľī æľº
æĭį æĳĦ
ãĢĤ <
å°¼ äºļ
âĢĿ âĢľ
Ġh ome
æĺ Ĩ
å¤ı åŃ£
ç² ĺ
Ġin s
, âĢĿ
èĩª ä¸»
æŃ£ æĺ¯
è¯¾ åłĤ
é«ĺ æł¡
Ã Ĺ
æĦı åĳ³
æľī å¾Īå¤ļ
çĸ Ĩ
åŀ Ĥ
åħ¬ å®ī
å¤« å¦»
ç¥ŀ ç»ı
åħħ æ»¡
ä¸ī åįģ
åĪ ł
Ġle t
åĬ ī
åĪĹ è½¦
çĪ± çļĦ
ç»Ħ åĲĪ
B S
èĢĮ åľ¨
æĬĢ è¡ĵ
us h
æĭī æĸ¯
è¨± å¤ļ
c ri
åħ¬ ä¼Ĺ
æĿ¥ åĪ°
çĲĨ æĥ³
å¤§å¤ļ æķ°
è¾ ī
èĥ½ éĩı
Ġde velop
Ġch ild
ä¸Ĭ åįĩ
çŃĶ æ¡Ī
æĸ° èģŀ
c es
åģļ åĩº
ï¼ ħ
ä½¿çĶ¨ çļĦ
éļ¾ ä»¥
ï¼ī ï¼ļ
P h
re turn
çĤ Ĵ
çİ¯ èĬĤ
åħ· å¤ĩ
Ġv al
æ¸ Ľ
é¼ ł
ä¸ľ åĮĹ
âĢ ¢
Ġsup port
åķĨ åĬ¡
Ġl ife
Ġc ar
n ess
ĠR es
ç§ĺ å¯Ĩ
c m
æĺ¯ æľĢ
Ġp oint
æ± ģ
Ġf ollow
ak es
å¸Ĥ åł´
éĥ¨ éķ¿
çļĦ åİŁåĽł
æ²Ł éĢļ
åıĥ åĬł
we en
å¸¸ å¸¸
ap e
çĻ¼ çĶŁ
æİ¥ è¿ĳ
çŁ¥ åĲį
è° ±
æĸ ¤
I M
å¾Ī éļ¾
çľ ī
èĥ ĸ
å¤© ä¸ĭ
__ __
éļı åĲİ
å°± ä¸ļ
åĨĽ äºĭ
æĽ Ŀ
ro p
çĦ¡ æ³ķ
E r
ĠB ut
å¾Ī æľī
æ¯ ģ
å´ ĩ
æĺİ çĻ½
ä½Ĩ åľ¨
ä¼ĺ æĥł
éļ »
Ġtr y
å±ķ å¼Ģ
æĶ» åĩ»
ä¹Ł è¦ģ
æįŁ å¤±
Ġprodu ct
æ¨ ¹
çĪ µ
æµ ħ
æľ¬ æ¬¡
æµģ è¡Į
æıĲ éĨĴ
åķ Ł
æĹ¥ èµ·
è®© æĪĳ
å»º ç¯ī
eng th
le ase
æķ´ çĲĨ
et s
é¹ ¿
Ġb usiness
æŃĮ æīĭ
å¤© æ´¥
æ²³ åįĹ
å¹´ äººåı£
æľī åĵªäºĽ
g g
é¢Ħ éĺ²
æ¦ ®
Ġtr ue
å®¶ äºº
Ġs k
éĩį åºĨ
Ġp ass
S h
com e
it al
èĤ ©
ä¿® æĶ¹
åıį æĺł
Ġ ke
è± Ĳ
åī Ľ
t ain
or n
é« ®
Ġ âĢĶ
çļĦ ä½ľçĶ¨
é® ®
çľģ çļĦä¸Ģä¸ªå¸Ĥéķĩ
æ» ļ
Ġf ound
æģ °
Ġg l
Ġex pect
éķ¿ çļĦ
è² ¡
è®° å¿Ĩ
åĲĦ ç±»
æĦŁ æĥħ
çº¿ ä¸Ĭ
æĲŃ éħį
å°ı ç¼ĸ
æľ µ
çħ ®
æĽ ¹
è´¢ æĶ¿
Ċĉĉ ĉ
E C
u le
æ£® æŀĹ
ä¸» æĴŃ
c o
t ime
é Ī
çļĦ ç¾İ
Ġ200 9
æ²» çĲĨ
çļĦ æķħäºĭ
ar get
ä¸Ģ èĩ´
ä¸Ĭ éĿ¢
èĽ ĩ
20 21
ä¼ģ æ¥Ń
æľŁ å¾ħ
åİ Ħ
åĲ ¨
ç®¡ éģĵ
å¤ļ å¹´
åĬłæĭ¿ å¤§
è£ħ ä¿®
çļĦ çĶŁæ´»
o og
åľ° ä½į
Ġpro cess
åİ ¨
5 1
Ġsh ow
ĠC on
çī¹åĪ« æĺ¯
éĽ ¾
å¼º åº¦
çĽ ¤
åĽŀ å®¶
æĸ ľ
æĢ» éĿ¢ç§¯
ur l
åĨł è»į
çİ ²
æĺİ æľĿ
æī¿ æĭħ
ç¢ ĳ
Ċĉĉ ĉĉ
éĥ½ è¦ģ
çļĦ åŁºç¡Ģ
" >
æĸĩ çį»
è¯ģ åĪ¸
éĿ¢ ä¸´
åĲĮ å¹´
æķ´ åĲĪ
çĻ Ĥ
A l
çµĦ ç¹Ķ
Ġc le
èµĽ åŃ£
å¥³ åıĭ
åĭ ŀ
å¾® åįļ
åıĳ åĬ¨
éĺ ģ
å¿ §
if y
å¤ª å¹³
Ġd el
è¾ ¨
5 9
Ġle ad
ä¸Ĭ åįĪ
çĲ ª
å¥ ĳ
5 2
æŁ¥ çľĭ
çŀ ¬
æ¹ĸ åįĹ
R es
èĢĥ çĶŁ
Ġg ener
èĢģ äºº
çľŁ æĺ¯
« çĹ
è§Ĥ çĤ¹
ä»£ çłģ
m e
åĳĪ çİ°
æ¼Ĥ äº®
æŁ ¯
**** ****
ri end
cc ess
äººæ°ĳ å¸ģ
è¿ Ł
æ¡ Ĥ
ord er
çī ¢
200 4
èį ¡
m p
éĢļ ä¿¡
å¤© æ°Ķ
t xt
åķª åķª
æĸ¹ çļĦ
å¤§ æ¦Ĥ
ä¼ł å¥ĩ
èį¯ çī©
ç¥ Ń
æŃ¤ æĹ¶
åı¯èĥ½ æĺ¯
Ġs ame
æĢ» äººåı£
é½ ¿
æ» ĭ
æľī åĪ©
æĻ® éģį
b ook
è§Ĥ ä¼Ĺ
é£ŀ æľº
ĠS e
ä½ľ å®¶
å°± ä¸į
ä»İ äºĭ
l ist
èĹ į
ä¾Ŀ æį®
ĠA s
æĲ º
åīį çļĦ
l ess
è½¬ è½½
åıĥ èĪĩ
èĪ Ĭ
å¥½ äºĨ
çļĦ å¤ĸ
ç¯ Ħ
Ġc our
åĬł å¿«
ä¼ģä¸ļ çļĦ
è¯Ħ ä¼°
èĴĻ åı¤
å°į æĸ¼
æĶ¶ éĽĨ
éĲ ĺ
ç´ ¹
Ġre ally
æīĭ æ©Ł
æ±º å®ļ
æĦı å¤ĸ
çİ Ħ
éı ¡
6 1
ĠS c
äº Ĥ
éł ģ
æł¡ åıĭ
Ġto p
v en
æľĪ ä»½
åħļ çļĦ
ä¸Ģ æ¨£
æĦ¿ æĦı
s ize
Ġst yle
è¥¿ åĮĹ
è¡ Ŀ
i qu
Th is
è¿ Ī
ant s
Ġdes ign
B C
æĹ¶ çļĦäººåı£
éĢļ éģİ
u ck
) ãĢģ
çĭ ±
æµ· æ´ĭ
èŀį èµĦ
Ġhe ad
çķª åı·
çĸ ¯
olog y
Ġdiffer ent
çĳ Ł
è¥¿ åįĹ
Ġte am
è¾ ŀ
æµ· å¤ĸ
âĺ ħ
è¿ĲåĬ¨ åĳĺ
åĬ ²
ä¼ Ĳ
é«ĺ çº§
è® ·
ä¸Ń éĹ´
ro l
çº ł
ä¸Ģä¸ª äºº
= '
åħļ åĳĺ
çľģå¸Ĥéķĩ åĪĹè¡¨
åıĤ æķ°
å© ´
å¼ ¯
èģĶ èµĽ
èī ¦
åĮħ è£ħ
ä» °
æĥħåĨµ ä¸ĭ
éĬĢ è¡Į
æĿ± äº¬
in it
åħ§ å®¹
èĲ Į
è¿ĩ æĿ¥
æ£ ī
Ġprov id
Ġ --
åĵĪ åĵĪ
åĪ© çİĩ
é»ĳ èī²
ä¸Ĭ ä¼ł
åģļ çļĦ
ä¾¿ å®ľ
çĽ Ĺ
o ard
çī µ
éĸ Ĵ
çĵ ·
åĲĦ åľ°
èĩª æħ°
ç»Ļ äºĪ
.... ....
Ġgo ing
ç®¡ è½Ħ
å®ļ ä¹ī
çĻ½ èī²
è®¿ éĹ®
æ¸¸ å®¢
å°Ĩ ä¼ļ
a j
åľ¨ äºİ
Ġ200 4
è¡ °
æıĲ åīį
O T
åĲĦ ä¸ª
å¤ı ä»¤
æ¡Ī ä¾ĭ
ä¹Ł èĥ½
ï¼ļ ãĢĬ
éĹ ¹
å§ ¨
åħ¨ æĸĩ
us s
èµ ´
200 3
æľŁ éĸĵ
Ġc are
Ġa round
em s
è¾ ĸ
åĳ Ģ
èµ· ä¾Ĩ
èĢģ èĻİ
oog le
Ġm odel
at s
çĮ ľ
æĺ Ń
éº ¥
ail able
ist s
éĥ¨ çļĦ
æĹ ¨
èĢģ åħ¬
. ,
Ġv is
åĪĽ å»º
å± ¥
æīĢå±ŀ çļĦ
èľ Ĥ
v alue
Ġop en
Ġbet ween
æĪ¿ éĹ´
åĳ¼ åĲ¸
Ġb re
un ity
è½» æĿ¾
åĴ ª
è£ħ å¤ĩ
Ġdis c
è·¯ ä¸Ĭ
å¯» æī¾
ĠC ol
Ġst ill
çļĦ å¸Ĥéķĩ
v ar
åľ¨ ä¸Ģ
æ±Ł èĭı
æĤ ¬
éĸ ±
ä¸ĭ è¼ī
åľ° äº§
åŃ Ł
çĽ Ĩ
w h
ç¨ Ģ
èĬ Ĵ
æĢģ åº¦
æ½ ĺ
å¸¦ çĿĢ
åĮº åĪ«
g y
æĥ³ æ³ķ
Ġpro gram
è¨ ª
æ¸ħ æľĿ
r am
8 7
éŃ ħ
èĭ į
è¾ ½
çļĦ éĤ£
æĹ§ å¸Ĥéķĩ
con st
ç¼ ´
æµ·æĭĶ é«ĺåº¦
è´¢ åĬ¡
æī© å¤§
Ġh tt
ä»Ĭ æĹ¥
é ¯
Ġ å¹´
åĪ© æ¶¦
æĪĸ è®¸
ĠP h
çī¹ æĢ§
åħĭ èĺŃ
p re
c n
åĲį ä¸º
æħ İ
åĦ Ħ
ä¸Ĭ ä¸ĭ
æĪĺ æĸĹ
s w
è´· æ¬¾
æĶ¯ æĴĳ
ĊĠĠĠĠĠĠĠĠĠĠĠĠĠĠĠĠĠĠĠĠ ĠĠĠ
æľ¬ äºº
å¾ª çİ¯
Ġb oth
u ff
å£° æĺİ
Ġ `
éĥ½ èĥ½
éĨ ī
are nt
æİ ĺ
qu est
éĴ »
C D
Ġ200 2
erv ice
èħ Ķ
è¿ĩ çļĦ
ç· Ĭ
è¯´ éģĵ
ĠS p
è¿½ è¸ª
èħ ³
ä¾ ł
å°Ĩ åľ¨
éĿĴ æĺ¥
Ċ ĠĠ
å¹¶ ä¸įæĺ¯
ä¸¤ äºº
çķ ¢
æĬ ¼
ä¸Ń åŃ¦
æľī ä»Ģä¹Ī
Ġch ar
åįļçī© é¦Ĩ
æĥħ ç»ª
ivers ity
r ist
C P
è´Łè´£ äºº
åĮ Ļ
ä¼Ļ ä¼´
ç³ ķ
å¹´ é¾Ħ
æ¼ Ĩ
èİ· åıĸ
ä½įäºİ æ³ķåĽ½
Ġf ile
åħģ è®¸
ĠA meric
å°± æľī
åı¬ å¼Ģ
å®¤ åĨħ
çĻ «çĹ
w ays
çĻ«çĹ «
è¾ĵ åħ¥
in al
ç¡ ķ
s m
Ã ©
âĨ ĵ
çĶ º
æĿ ı
æĵ İ
éĤĦ æľī
ä¼ĺ è´¨
çĩ ¥
çºª å¿µ
æ§ ½
éĩĮ æĸ¯
éĤ®æĶ¿ ç¼ĸçłģä¸º
] .
çĶµ åĬĽ
Ġ200 3
æ¼« çķ«
å ¬
å¼º çļĦ
åľº æĻ¯
è£ Ķ
äºº åĵ¡
çĳ ª
å°º å¯¸
Ġm ust
åĴĮ å¹³
çĶµ æºĲ
æıĲä¾Ľ äºĨ
itt le
æŁĲ äºĽ
are d
å¤ ¹
çĺ ¤
åįĬ å¹´
ä¾ ¯
ä¹ĭ ä¸ĭ
è¯Ĩ åĪ«
ãĢį ãĢģ
çķĻ ä¸ĭ
æ¾ ¤
æĪ¿ åŃĲ
å¦ Ĩ
åŃ¸ éĻ¢
I ON
g s
le ment
é °
åİŁ æĿ¥
å·ŀ å¸Ĥéķĩ
å² ³
åŁİ éķĩ
è² ´
Ġ %
ï¼ļ ãĢĤ
re en
åŃ¦ æľ¯
è¼ ¸
é£¯ åºĹ
5 3
Ġs ay
çĽĳ æİ§
Ġp ost
èŃ¦ æĸ¹
ä¸į æľĥ
ä¸ľ æĸ¹
åı° ä¸Ń
èļ Ģ
çĬ ¹
A nd
çĶŁ å¹³
æķħ éļľ
è¿Ľ æŃ¥
Ġm arket
è» Ł
èī² å½©
æĴ Ĵ
è¾ °
åľ¨ ä¸ŃåĽ½
éĽ ľ
D ata
æĮ ¡
åħ¬ ä¸»
é¡ §
ä¹ĭ éĸĵ
åŁ ĭ
è¦º å¾Ĺ
Ġb ook
èĤ ĸ
åĲĮ ä¸Ģ
æĺ¯ æľī
éĥ¨ èĲ½
, "
ä¸į ä¹ħ
b ers
å£ ³
Ġbu ild
åŃ Ŀ
Ġs l
9 6
èº« è¾¹
é¢Ħ æµĭ
ä¸ĵ éĹ¨
è¿ĳ æĹ¥
n ew
ro ss
5 4
æ¯ı ä¸Ģ
Ġm od
Ġass ert
ç¢ ¼
Ġus ing
Er ror
åľŁ å£¤
æł¹ æĵļ
å¤ª å¤ļ
åĲĪ æ³ķ
å¤ĸ äº¤
ç¡® å®ŀ
å±¬ æĸ¼
å±ħ ä½ı
æĪĲ åĪĨ
åĽĽ ä¸ª
å¾Į ä¾Ĩ
åĽł èĢĮ
å½© ç¥¨
éĥ ģ
å¹ ¹
æľī æ²¡æľī
æķ°éĩı ä¸ºäºº
p ar
éĲµ è·¯
A n
åįģ å¹´
ä¼ĳ æģ¯
é¼ĵ åĬ±
or th
ä¸º æ³ķåĽ½
æłĩ å¿Ĺ
æµ Ĩ
æĸ¯ åĿ¦
æĥ ¡
åĲĮ æĦı
a ut
å¯ ĵ
æİ¥å£¤ çļĦå¸Ĥéķĩ
vers ion
arg s
éĥ½ åı¯ä»¥
Ġc urrent
åĮ» åŃ¦
è¿ĺ åı¯ä»¥
éł Ĥ
Ġn ext
éĢĲ æŃ¥
SE E
åĩº ä¸Ģ
ot t
é¢Ħ è®¡
è¿ĳ å¹³
åĤ ĳ
ain ing
è¡¥ åħħ
Ġe as
c ent
æĻ °
ç¶ ł
è¯´ çļĦ
å§Ķ ä¼ļ
çĥı åħĭèĺŃ
è« ĩ
å¼ķ åıĳ
çł´ åĿı
çİ° éĩĳ
æ³ ª
ä¼ļ åĳĺ
æľ ´
æĹ© æľŁ
çļĦ è¦ģæ±Ĥ
Ġp os
è®© ä½ł
å²ģ çļĦ
ä¿ ±ä¹Ĳ
å¼º åĮĸ
O P
é©± åĬ¨
åĲ ķ
ç§į æ¤į
Ġc ase
æīį æĺ¯
æĶ¿æ²» äººçī©
è©² åľĭ
é¥® é£Ł
åĽ½ å¤ĸ
i um
å·´ è¥¿
çĨŁ æĤī
Ġpl ace
çº¿ è·¯
èĩ ¨
éĥ¨ ç½²
ä¿Ŀ çķĻ
ä¸į ä½ı
å¸Ĥ æ°ĳ
çªģ åĩº
L ist
c ed
Ġ1 5
ç§ĳ çłĶ
åĲ ³
çļĦ èĥ½åĬĽ
åħ¶ å¯¦
w are
200 2
å¿ Į
n ot
å®ŀ åľ¨
ro ll
åı¯ éĿł
åį¢ çĵ¦
ç³ Ĭ
ac he
ãĢį ï¼Ī
" );
æĤ Ł
Ð ²
Ġp ur
åĭ ĥ
ä¼ļ è®¡
] )
Ġl og
m a
åĲĮ å¿Ĺ
å·® å¼Ĥ
ç¾İ é£Ł
IN SEE
å¸Ĥéķĩ ç¼ĸçłģä¸º
INSEE å¸Ĥéķĩç¼ĸçłģä¸º
äº§åĵģ çļĦ
åı¤ ä»£
éĢ ¸
æĴŃ åĩº
å¤ıä»¤ æĹ¶
èĳĹ åĲį
æ· ĭ
7 6
ĠĊ Ċ
æ¬¡ æķ°
èĶ ¬
Ġth ree
åĬł åĿ¡
ç² ®
æ¸ł éģĵ
çļĦ éĤ®æĶ¿ç¼ĸçłģä¸º
æľī å¤ļ
L O
i ver
é¨ İ
åľ° çĤ¹
ind ows
å¤ ķ
è´¡ çĮ®
T o
æĬ¥ åĲį
ab el
ord s
åħ±äº§ åħļ
ä¹Ł å¾Ī
å¸ĥ å±Ģ
åĮºä¸º UTC
æĹ¶çļĦäººåı£ æķ°éĩıä¸ºäºº
Ġf ew
çľģçº§ éĢī
äºİ æĹ¶çļĦäººåı£æķ°éĩıä¸ºäºº
çļĦ çłĶç©¶
éĢ Ŀ
ä¸į å¤ļ
æĶ¶ åĪ°
Ġc or
çľģçº§éĢī åĮºä¸º
æīĢå±ŀçļĦ çľģçº§éĢīåĮºä¸º
å¾ µ
Ġcont in
çµĲ æŀľ
Ġto o
åĩº æĿ¥çļĦ
è¯¥ çľģä»½
åĳ¨ æľŁ
ç²¾ å½©
çł ĸ
åĴ ±
ä¸» æ¼Ķ
è¯¥çľģä»½ ä¸ºæ³ķåĽ½
r on
æĮī æĳ©
å¤ĸ æ±ĩ
op t
æĪĳ åľ¨
ight s
çļĦæĹ¶ åĮºä¸ºUTC
æĪĸ æĹ§å¸Ĥéķĩ
ç½ ©
çĽĳ æµĭ
å®ī å¾·
æŀĹ åĮ¹
æĭħ å¿ĥ
åįģ åħ«
ĠThe y
P C
åģļ æ³ķ
çļĦ ä¸ľè¥¿
åŁº åĽł
ä¼¤ å®³
è¾ Ī
åĵª éĩĮ
Y ou
èĲ¥ ä¸ļ
å¤§ å¹ħ
Ġ ...
è¨ ĵ
éĢ »
ĠB l
éģ ¥
Ġf act
æ°´ æŀľ
è ł
çĶŁ æ¶¯
åıĸ æ¶Ī
å¤§ åĬĽ
av ing
ä¸į åľ¨
Ġw rit
éļ İ
åıĥèĢĥ æĸĩçį»
æĪĲ éĥ½
rap h
I I
Ġc heck
is m
ä¸Ń æľī
ce ption
ä» ²
è£ Ļ
åº Ļ
Ġm ain
Ġre p
èķ ¾
æĿĥ åĪ©
åĳ¨ åĽ´
åĪļ åĪļ
éĢł åŀĭ
èµĦ è®¯
åĳ³ éģĵ
å¹¶ åľ¨
é¤Ĳ åİħ
çĶµ æľº
å¤ĸ åĽ½
èī¯ å¥½
20 22
æĹ¥ åŃĲ
æ¯ı æĹ¥
èķ ī
çŃ ĭ
åģļ äºĨ
è£ħ é¥°
è¨ ´
çĤ Ń
Ġre al
éĺŁ ä¼į
Ġf ree
u se
è¨ »
riv ate
çļĦ æľĭåıĭ
ic ense
çłĶç©¶ æīĢ
åįı è°ĥ
éĥ¨ éĺŁ
åį± å®³
åģ ´
äºĴ åĬ¨
åħ¬ äº¤
é¡ ĺ
ĠO n
ç» ĳ
å¼ı çļĦ
ç¦ģ æŃ¢
æĹ¶ å°ļ
éĢı éģİ
éĤĢ è¯·
æ¸ Ĺ
S A
è¾ĵ åĩº
å¸ ½
ç¡® è®¤
é¥ ±
æıĲ ç¤º
åĸ Ĭ
Ġh app
æŀĦ æĪĲ
åĩº èº«
ä¼ł æĦŁ
æĺ¯ ä»¥
ä¼ļ åľ¨
æĸ° åĬłåĿ¡
in ed
åĮº çļĦ
r ite
åĬł éĢŁ
Ġl ot
å½ °
äº¿ ç¾İåħĥ
ç²¾ åĵģ
f unction
Ġc ustom
çľĭ äºĨ
å° ĭ
å°± ç®Ĺ
Ġin cre
éĻ £
åĽ Ĭ
è¿ĺ åľ¨
åı¥ è¯Ŀ
} -
Ġad v
æ³ķ åľĭ
Ġ å°ı
ä¸į èī¯
< /
is hed
æµ ı
åį° è±¡
å µ
èĩ Ń
æŀĹåĮ¹ åħĭ
ur al
æĪ Ģ
çī¹ çļĦ
åŃĺ åĤ¨
ç¨± çĤº
çľĭ æĿ¥
æį Ĳ
ï¼ ĳ
ç£ģ åĬĽ
çĴ° å¢ĥ
Ġf r
éĢļ éģĵ
éĢĻ ç¨®
ä¹Ł æ²¡æľī
æĻĤ ä»£
U R
is ter
äºĶ å¹´
äºĭ åĬ¡
åĽ½ æ°ĳ
ç¦ı å»º
I G
çĻ¾ åº¦
St ring
è²łè²¬ ç®¡è½Ħ
ht ml
çļĦæĥħåĨµ ä¸ĭ
æĹ¥ æĬ¥
ä¹Ł è®¸
æĹł äºº
æľĢ ä½İ
çĲĨ çĶ±
15 0
oh n
æ¢ ¨
æī Ń
åĤ ħ
éĿ¢ åīį
Ġs ol
å®ŀéĻħ ä¸Ĭ
çĶµ åİĭ
çŃī å¾ħ
æĦıåĳ³ çĿĢ
Ġ ä¸Ģ
ĠF r
çĻ¼ è¡Į
le ction
7 9
8 6
åĪĨ éħį
å¢ĥ åĨħ
æ «
ĠI s
æ°¸ è¿ľ
Ġre port
Ġke ep
et ail
n um
å¾Ī å¤§çļĦ
å®Ĺ æķĻ
ä¸ ¢
th ing
å¾Īå¤ļ äºº
ä¸į æĥ³
çļĦ ä¸Ń
æŃ ¸
åĨ »
f il
Ġp at
æ³ Ħ
å¯¼ æ¼Ķ
èħ º
å¤± åİ»
çĪ ¬
äº ı
æµ ¸
çŁ ©
æĿŃ å·ŀ
å¹¿ å¤§
ç¬¬ ä¸Ģä¸ª
æĦŁ è°¢
Ġwith out
å¼ķ æĵİ
æŀĦ å»º
è³ ĵ
çĶŁ åŃĺ
Ġd irect
æ·· åĩĿ
ç«Ļ åľ¨
å®ŀ è¡Į
ä¿±ä¹Ĳ éĥ¨
} ,
å®ļ æľŁ
Ġor der
çĶŁæ´» ä¸Ń
Ġhe alth
åı Ļ
åĽ¾ ä¹¦
åŃ¦ å®¶
å¯ ©
å¤§ çº¦
è¿Ľ åı£
Ġmon th
æ²³ åĮĹ
åħ© åĢĭ
é«ĺ æķĪ
åİ ī
éħį éŁ³
å»¶ ä¼¸
éĵ Ŀ
èĩ ī
Ġp ay
è¡Ĺ éģĵ
å´ İ
å®Į ç¾İ
è§Ĩ è§ī
è°ĥ èĬĤ
Ġ} );
æĺ¯ æĪĳ
iz ation
çĭ Ĳ
l er
ä¸ ĺ
èĻķ çĲĨ
æľĢ å¥½çļĦ
y n
ä½ Ķ
çļĦ åĲĮæĹ¶
æľīä¸Ģ äºĽ
åĨ³ èµĽ
éĺ³ åħī
Ġd uring
æĪª èĩ³
ï¼Į ãĢĮ
çĶŁ ç´ł
åĬŁ çİĩ
ent ial
M A
Ġe ar
ä¾Ŀ æ³ķ
åĽ½ åĬ¡
pl oy
å® Ļ
ç¸ ¾
ä¿ ±
èĪŀ åı°
Ġfe el
æľĢ çµĤ
é«ĺ çŃī
Ġ201 3
æĪĲ å°±
Ġse cond
è³ ŀ
ä¸Ģ æĿ¡
åĭ Ł
Ġc r
qu al
æĩī è©²
ç»Ļ æĪĳ
éª ¤
Ġth ings
è¶Ĭ åįĹ
re g
T V
å½ Ń
ç¬¬ åħŃ
å½ĵ ä¸Ń
å§Ķåĵ¡ æľĥ
ä¼ļ ä¸Ĭ
// //
M P
çĨ Ļ
eth ing
æ¥ Ĭ
è¿ĺ ä¼ļ
å°½ éĩı
è¯ ŀ
åĲ« éĩı
æľĢ åĪĿ
çĶµ æµģ
ç¢ §
ä¸ª æĢ§
le y
åĶ ĩ
çŁŃ æľŁ
ĠI nd
m iss
LE D
åį³ å°Ĩ
Ġte chn
åħ¥ åı£
æ³¨ éĩį
æŃ¦ æ±ī
åĬł å¤§
äº§ æĿĥ
æĵģ æľī
ç© ·
ç« ¶
åĮ Ģ
Ġc ap
æ¨ ±
èĻ ¾
con t
ĠA d
å¡ĳ æĸĻ
æ·± åĪ»
8 9
æĶ¾ å¼ĥ
å¹¿ åľº
æĮĩ æĮ¥
çĮ İ
åĲ« æľī
b b
å§ĭ ç»Ī
ä¹ł è¿ĳå¹³
èµ° åĲĳ
èµ· äºĨ
å¦ ĥ
Ġav ailable
æĻ ´
ï ¹
æĽ´ å¥½çļĦ
èĵ ĭ
è¿ĺ èĥ½
èŃ° åĵ¡
Ġp oss
ä¸¦ ä¸Ķ
åª ³
å¤© æĸĩ
åİ ¦
éĺ¿ éĩĮ
ä»ĭ ç´¹
ä¸´ åºĬ
ĠB e
ä¼Ĺ å¤ļ
æµı è§Ī
éģ¸ èĪī
æ°´ çļĦ
ä¸ŃåĽ½ çļĦ
èĳ Ľ
åĮĹäº¬ å¸Ĥ
éĿŀ æ´²
per ty
if ied
èµ ĭ
åĴ ¬
æģ ¨
æĺİ çļĦ
å°ı åŃ©
6 00
åħ Ķ
Ġg ame
å¤§ éĩıçļĦ
æ¤ ħ
èĤ ļ
æĪĳ å°±
i or
ut il
å¯¼ èĪª
ãĢĤ ãĢĬ
åĲ¦ åĪĻ
âĹ ı
è¢ ĸ
æĢ ¨
Ġpro ject
é¢ ģ
èī ĩ
X X
è¥¿ æ´ĭ
åĪ° è¾¾
v ed
ç¥ŀ ç§ĺ
äº¤ æį¢
åŃ©åŃĲ ä»¬
å·´ é»İ
å¾ĭ å¸Ī
æ¸ħ æĻ°
ç¶ ľ
å¯¹ æŃ¤
id d
å¼Ĥ å¸¸
åľ ĵ
è½¨ éģĵ
Ġ201 0
Ġof fer
çĶµ è·¯
ä¸Ńèı¯ æ°ĳåľĭ
çļĦ æīĭ
åĲ¬ åĪ°
ä¸ĸçķĮ ä¸Ĭ
è¶³ å¤Ł
p y
us ic
æ¡ ¶
çļĦ çĥŃ
çĹ ķ
èĻ Ĳ
é¸ £
p or
åĳ µ
1 20
å® ł
çīĪæĿĥ æīĢæľī
éĢĤ å½ĵ
è¨ĺ èĢħ
æ¶Ī å¤±
H D
æĪĳ è¦ģ
æł ª
ç´ł è´¨
ä¹¡ æĿĳ
as ter
u ild
å°Ŀ è¯ķ
se arch
H E
å·¨ å¤§
le x
èĩ Ĥ
æĬ¥ å¯¼
èĢĮ ä¸į
åĨľ æ°ĳ
çĽ¸åħ³ çļĦ
S S
åĺ Ľ
Ġpr int
ç¡ «
ç»ĵ å©ļ
çĶ¨ æĿ¥
æĢ§ æł¼
æİĴ è¡Į
çº¢ èī²
Ġpart ic
æĦı çļĦ
è®¾ ç«ĭ
è¥¿ äºļ
éĽ»è¦ĸ åĬĩ
å®ŀéªĮ å®¤
èĤ ĥ
èĲ Ŀ
an e
çŃī äºº
å¸Ĥåľº çļĦ
ou ght
æĶ¶ èĹı
å¿ĥ éĩĮ
çļĦä¸Ģ äºĽ
èĩ Ģ
æĤ ¦
- {
å·¥ åİĤ
ï¼Īï¼Į ï¼ī
Ġ 30
Ġis s
å¨ ĩ
åł ª
äº Ń
iv ing
U n
æľī æĹ¶
å§ ľ
Ġo per
ç¶² è·¯
æ¾³ å¤§åĪ©
èĲ §
æĿ ī
C E
å°ı å¿ĥ
ãĢįãĢģ ãĢĮ
m ed
ĠS o
æĻ Ĵ
ä»ĸ è¯´
çº¤ ç»´
åĩº å¸Ń
Ġ æĸ°
è¡Į åĭķ
è° Ĳ
rib ut
è§Ħ å¾ĭ
å± Ī
ĠO r
ide o
å¿ħ éłĪ
ä¸ĸ ç´Ģ
åľ¨ å®¶
ä¸ī å¤§
é¦Ļ èķī
æ· ¨
ä¸Ń å°ı
å ¶
ä¸Ģ æĺ¯
a f
ain s
enc y
ä»ĸ äºº
it le
æ¨¡ æĭŁ
å¯ Ĥ
U N
Ġl ittle
å¥½ å¥½
æ¯ķ ç«Ł
çĻ» è®°
æ··åĩĿ åľŁ
éģİ ç¨ĭ
åĭ ¾
çĥ Ĥ
bs ite
çĶ· çĶŁ
' );
æĬ «
åľ¨ å¤§
ĠS he
ç¿ Ķ
ä¾¿ æĺ¯
ä¹Ł å°±
æ¬ º
id th
æŁ¥ è¯¢
Ġ201 4
åĩº åıĳ
Ġl ine
èĢĮ ä¸įæĺ¯
ç¹¼ çºĮ
çļĦ åĨħå®¹
7 2
éĿ ľ
å³ ¡
åĪĻ æĺ¯
æĬĬ æı¡
éĻ °
å¿ĥ ä¸Ń
Ġre ce
one y
Ġm et
Ġ ?
Ġev ent
Ġp ut
ĠT e
çĶ· åŃ©
S c
() .
ä½įæĸ¼ è©²åľĭ
éĽ» åŃĲ
åģľ è½¦
F or
åĽŀ æĿ¥
å¯¹ æīĭ
ä½İ äºİ
çĽ ¡
æľºåĻ¨ äºº
èİ Ĭ
åĸ® æĽ²
åĽ´ ç»ķ
é¢ĳ éģĵ
Ġn ull
u x
ä» ĩ
çŃ Ĩ
æĺ¨ å¤©
çŁ Ľ
çŁ³ æ²¹
é¤ ĺ
æ±¡ æ°´
ĠTh ere
åĲĮ æ¯Ķ
r al
éĢ ¢
åľ° éĿ¢
çŃ Ĵ
åĩ ±
åı¸ æ³ķ
ç»´ æĮģ
re m
è¥¿ å®ī
ä¸ĵ åĪ©
Ġ ãĢĲ
Ġb ig
éĶ ¡
è¤ ĩ
å°¼ äºŀ
æī¹ åĩĨ
ä¸į å¦Ĥ
éĸĭ çĻ¼
å¼ ĺ
Ġ1 6
é«ĺ èĢĥ
éĤ£ éĩĮ
ĠH ow
éĭ ¼
Ġinclud ing
æ¨¡ åĿĹ
å¹¿ æĴŃ
äºĭ é¡¹
' ;
çķ Ķ
çľŁæŃ£ çļĦ
> >
åĲĪ æł¼
st and
ä¿Ŀ èŃ·
å« ģ
ç¼ Ĩ
P l
Ġre f
å¼º å¥¸
Ġserv ice
å±± è¥¿
ç©º è°ĥ
å¥¹ ä»¬
åħ¨ æĸ°
ra w
é¢ ĸ
æĪĲ å¹´
åĨĻ çľŁ
ä»¶ äºĭ
çļĦ æķ°æį®
èĮ Ĥ
å» Ĭ
èĵ Ħ
åĲĮ äºĭ
ä»ĸ æĺ¯
ä¸Ģ è¾¹
æ°Ķ ä½ĵ
ä¸ľ åįĹ
Ġl aw
é£Ł çĶ¨
åĬ į
#### ####
åĲĦ é¡¹
æīĵ ç®Ĺ
m y
ou n
èĩ³ äºİ
å±Ĭ åħ¨åĽ½
ç¸½ çµ±
çĸ ²
åĵª ä¸ª
åıį å¯¹
æĬ ¬
æ³ Ĭ
æł ½
æĹ¥ çļĦ
åĵģ ç§į
ç¢ Ĺ
ç»Ĩ èĬĤ
éĥ¨ ä½į
å¤§ åŃ¦çĶŁ
å»º éĢł
åľ° éĵģ
è© ©
O D
é¡º åĪ©
åı¸ æľº
æµģ åĬ¨
åįģ ä¹Ŀ
Ġl ove
g round
ä»¥ ä¸ĬçļĦ
çº¿ çļĦ
è¡Ģ ç®¡
äºº åĬĽ
æī© å±ķ
æļ ĳ
ç«ĭ æ³ķ
ä¸ĭ äºĨ
ä¸Ģ ä½ĵ
Ġrequ est
åĩł å¹´
éģ ®
em ber
æĩ ·
èģ¯ åĲĪ
Ġbet ter
Ġal ways
w it
Ġcom e
åĲĪ éĢĤ
ç®Ĺ æ³ķ
è¯´ è¯Ŀ
Ġ ä¸ĭè½½
ä½ľ åĩº
å¹´ èĩ³
åŃ£ åº¦
è®° å¾Ĺ
v ir
åĽŀ æĶ¶
éĢ Ľ
å¸¦ æĿ¥çļĦ
ä¸į å¤Ł
åł µ
åľ¨çº¿ è§Ĩé¢ĳ
æĪĳ åĴĮ
æľĢ å¤ļ
Ġcre ate
éģŃ åĪ°
è² ¼
Ġ Ñģ
Ġt er
Ġo ld
ass ert
âĹ İ
ç¾ħ æĸ¯
æ¤ Ĵ
æĹ¥ åīį
åħ» èĢģ
A I
f ace
åİ ķ
ä¸Ĭ åİ»
Ġsm all
Ġs chool
Ġsom ething
l ing
Ġ& &
èµĮ åľº
çī© åĵģ
åĽĽ å¹´
èĦ Ĩ
çļĦ èĢģ
çĺ ¦
Ġqu est
è¿ĳ å¹´æĿ¥
å¤§ åĮº
Ġt ri
as es
ç»´ ä¿®
èı Ĭ
è½¬ æį¢
å¤± è´¥
å§ ¬
çĥĪ çļĦ
å®ĩ å®Ļ
èµ° äºĨ
èĳ ¬
å® ´
ï¼Ł ãĢį
Ġle vel
å¼Ģ åĲ¯
å°Ĩ åħ¶
a o
ic le
åįģ ä¸ī
çĬ ¬
èĬ ½
Ġ z
uth or
çļĦ ç¬¬ä¸Ģ
æī ĳ
å¯¹ æ¯Ķ
åħ¬ æ°ĳ
ç»ĥ ä¹ł
äºº æķ°
m odel
ä½ı æĪ¿
éĩĩ è®¿
é¥ ¼
Ġeff ect
éĨ ĩ
æĭĴ ç»Ŀ
Ġ è¿ĳåľ°å°ıè¡ĮæĺŁ
Ġè¿ĳåľ°å°ıè¡ĮæĺŁ è¿½è¸ª
é½ Ĭ
ĠM ar
åĤ ²
æĬ ¹
Ġ201 2
åĨ³ çŃĸ
b t
èµ ł
å§ »
ï¼ģ ãĢį
æĺ¯ åĽłä¸º
Ġan other
---------------- ----------------
Ġ1 00
Ġst and
at ter
ä½ľ æĽ²
IN G
éģ º
ãĤ ¹
éĢ» è¾ĳ
æ¸ħ æ´ģ
è®¤ è¯ģ
Ġ201 7
åį ľ
åıĳ èĤ²
um p
n ect
c ur
éĺ Ķ
Ġinter est
åĳ Ĩ
A s
Ġg ot
Ġ200 1
è£ ķ
+ +
I f
è®© æĪĳä»¬
è© ¹
éĺ¿ æĭī
æĹ© ä¸Ĭ
ä½ı å®ħ
æĮ ¤
Ġrequ ire
ä¸ĩ äºº
Ġ ç¬¬
éģĭåĭķ æľĥ
id s
åħļ å§Ķ
æľĿ é²ľ
å§Ĳ å¦¹
éĻ ķ
æľīæķĪ çļĦ
ir l
çļĦä¸Ģ éĥ¨åĪĨ
åİŁ åĪĽ
éĢı éľ²
ç¾İ æľ¯
ä¸» ç®¡
åĩ ¶
7 4
æ» ©
æĢİ éº½
d e
éľ ŀ
å°ı æĻĤ
é¢ Ī
è¿Ķ åĽŀ
Ġcomp any
åĲ ŀ
ĠK B
ç¿ ł
ç½ Ĳ
è½¬ ç§»
æ±º è³½
æĹ© é¤Ĳ
æĬķ ç¥¨
è¥¿ æĸ¹
av a
è¯· éĹ®
Ġper form
Ġp ower
åħį çĸ«
èĪ Į
æĵ ´
Ġv iew
æĥ³ è±¡
a a
8 4
o ff
å¿ĥ æĥħ
æ¸ħ æ´Ĺ
æĢ ¡
åľĭ æ°ĳ
C H
ä¸ī è§Ĵ
è¡¨ æĥħ
Ġf riend
å¤© ä½¿
åĦ Ģ
Ġs ince
åįģ ä¸Ģ
un c
èĤ ª
a ff
ä¿¡ å¿ĥ
ill ion
æĹ¥ èĩ³
é£ŀ è¡Į
åıį èĢĮ
ä¸į æĺİ
Ġfam ily
æ¯Ķ åĪ©
åħ¬ åĳĬ
çľģ åĴĮ
ä¸į ä½Ĩ
ä¸ §
å·¥ä½ľ äººåĳĺ
çĶŁ çĶ¢
å¤§ ä¼Ĺ
å¡ ĺ
è§£åĨ³ æĸ¹æ¡Ī
æĭĽ çĶŁ
æĭ Į
y nc
æ´» æĢ§
ä¾Ĩ èĩª
è³ĩ è¨Ĭ
ä¸ ¸
ä¸į èµ·
en n
åĬ «
çļĦ åŁºæľ¬
æ¢¦ æĥ³
è´ ¾
å¿Ĺ æĦ¿
é¼ İ
çļĦ é¦ĸ
èĥ½ å¤ł
å§ĭ å»º
åĽ½åĬ¡ éĻ¢
åľ° ä¸Ĭ
ä¼ ª
ç¤¾ä¼ļ ä¸»ä¹ī
æĹ¶ åĪ»
è½¬ åŀĭ
èĦĤ èĤª
æİĪ æĿĥ
éĢ Ĭ
Ġw on
è¿ĳ æľŁ
åįĥ ä¸ĩ
åħ¬ å°º
æĽ´ ä¸º
æĥ ¨
con fig
7 3
éļľ ç¢į
ç´ Ĳ
st ring
ir d
æ¯ı ä¸Ģä¸ª
èĢĥ æł¸
åľ¨ è¿ĻéĩĮ
ĠI S
èģĮ å·¥
æľ¬ ç§ĳ
åĪĨ åĪ¥
ist ory
èĭ± æł¼
ç¨ »
æ¬ ł
Ġm ight
çľĭ è§ģ
åľ¨ è¿Ļä¸ª
æ¯ı å¹³æĸ¹åħ¬éĩĮ
w ay
Ġm ov
ä¾ į
çĶ¨ åĵģ
å°İ æ¼Ķ
ä¸Ĭ æ¶¨
ä¸į å¤ª
ä¸Ģ ç¨®
Ġw ater
199 9
çļĦ è®¾è®¡
Ġas k
Ġs ure
äºº ç¾¤
åł ħ
Ġpro ble
Ġor gan
éģĵ å¾·
è¯´ æĺ¯
å² Ń
èĮ µ
åºĶ å¯¹
åŁ Ķ
Ġf ull
åĩł å¤©
S e
å¥¥ è¿Ĳ
v es
è¶ħ è¶Ĭ
ç° ½
å¤ļ åħĥ
ç»Ļ ä½ł
ç©¶ ç«Ł
åį §
å·¨ ä¹³
çĪĨ çĤ¸
æĥħ æĦŁ
oc i
Ġde p
æıĲ äº¤
Ġ å¸ķ
A G
å¾Ī å¥½çļĦ
è¯± æĥĳ
æĻĤ æľŁ
å¾· åľĭ
ic ial
äºĳ åįĹ
ç§» æ°ĳ
Ġg row
å±Ĥ æ¬¡
çĽ¸ ä¼¼
éĶ Ī
ĠD e
æıĲä¾Ľ çļĦ
opy right
çĻ¾ åĪĨ
ä¼łæĦŁ åĻ¨
åİ ĺ
åı¯ è§ģ
Ġ Â
è½ °
Ġa ut
ub e
å¹³æĸ¹ ç±³
ç´ Ķ
C ol
æŃĲ æ´²
åĲĦ èĩª
æİĴ æĶ¾
è¾ĥ å¤§
Ġne ver
å·¥ èµĦ
éĶ »
å® ª
å¼Ģ å¿ĥ
äººå·¥ æĻºèĥ½
åĲį çĤº
Ġgo ver
al ign
åĿ ª
éĩį çļĦ
b ject
ç©º éĸĵ
å¨±ä¹Ĳ åľº
æ¸¸ æ³³
åľ° éľĩ
å¤§ åįĢ
äºĨä¸Ģ äºĽ
çļĦ å¥³
æ¶ Į
åķ ¥
å®ī å¾½
æ°Ķ åĢĻ
Ġman ag
æĢ» ä½ĵ
å¹³ æĹ¶
ç´§ å¼ł
åĽ¾ åĥı
é©¬ ä¸Ĭ
èĦ «
çĤ¹ çļĦ
çĽ ĥ
èĤ ¾
æĬķ è³ĩ
L L
it or
éŃĶ æ³ķ
æĢ» è£ģ
äº§çĶŁ çļĦ
éĸ± è®Ģ
åĬ¨ çĶ»
éĢĻ æĺ¯
çº½ çº¦
Ġch o
åįķ åħĥ
æĥħ äºº
éĩĩ è´Ń
çļĩ åĨł
æµ· åĨĽ
å¹ £
äºĮ æĺ¯
éĹ®é¢ĺ çļĦ
M S
åħĪ åĲİ
he ad
æĦŁ è¦º
å¤§ æķ°æį®
Ġh ard
å·¨ å¤§çļĦ
æŀ ļ
å¾Ī å®¹æĺĵ
åįĪ å¤ľ
Ġ201 6
æĿĤ å¿Ĺ
èĥ ģ
éĻ Į
9 2
é© ļ
å¾Ī å°ĳ
ä¸ŃåĽ½ äººæ°ĳ
åıĳ åĩº
ç¡ ħ
at ely
Ġimport ant
å¤ªå¹³ æ´ĭ
Ġf alse
æ£ ²
èĻ ¹
æ° ¨
ĠM an
åĴĮ åħ¶ä»ĸ
æĬĢæľ¯ çļĦ
è´ ¤
é£ ĺ
iv en
æĬ Ľ
åį« æĺŁ
è¿Ŀ æ³ķ
æ¼ ¸
éĩ Ŀ
åĳ¨ è¾¹
åħ¬ åĪĨ
æ¯« ç±³
èĢģ å¹´
çĶ± æŃ¤
æľįåĬ¡ åĻ¨
B l
if t
é£İ æļ´
åı° åįĹ
Ġw in
ç¤º èĮĥ
å²Ĺ ä½į
çĽ¸ çķ¶
èª¿ æŁ¥
åħ¬ åľĴ
åĢŁ æ¬¾
P P
Ġpro f
å½¢ æĢģ
oc ument
åį ĳ
åĻ ª
éłħ çĽ®
Ġpl an
åĲĮ æŃ¥
æĬ¤ å£«
it ions
çŃī çº§
é©¬ å±±
Ġ ide
å¯ §
æľĢ æĹ©
å°ı å§Ĳ
ä¸Ī å¤«
è¯ģ ä¹¦
èĤ¡ ä¸ľ
our s
8 00
st ate
ç®Ģ ä»ĭ
æ¹ ¯
åĮĹ å¸Ĥ
è¶ħ éģİ
ind ex
éĽĨ ä½ĵ
O n
æľ¬ æĿ¥
çļĩ å¸Ŀ
et work
åį µ
è½¬ åıĺ
ä¸» ä½ĵ
Ġus er
åĴ± ä»¬
çļĦ ä½¿çĶ¨
us er
om en
èĶ¬ èıľ
æ¬§ åħĥ
8 3
åĿĲ åľ¨
æ¶Ī èĢĹ
è½¬ åĮĸ
æ¯Ķ åĪĨ
å´ Ķ
ĠUn iversity
ç®Ģåįķ çļĦ
çºª å½ķ
enc es
åĨ¬ åŃ£
æľº è½¦
ä½ł ä¼ļ
èģĶ éĤ¦
æłĩ é¢ĺ
æĬķ æ³¨
éĮ ¦
.... ..
åħ¶ æ¬¡
èĻļ æĭŁ
å¤§ éĻ¸
è¾ ©
ate g
åĦª æĥł
å½» åºķ
è¿ĩ äºĨ
æĢ§ è´¨
æ¬£ èµı
å®¶ åħ·
9 4
å» ¢
æª Ķ
Ġ1 4
åĳ½ ä»¤
åĲĪ éĽĨ
è£¸ ä½ĵ
ä¸Ģ åĲĮ
() ,
æĢİ éº¼
Ġ âĢĺ
éĢļ è®¯
AP P
åĬ £
å¹¶ éĿŀ
çļĦ äº§åĵģ
äºº åĴĮ
åĢ ¡
ç¶ĵ éģİ
Ġs pe
Ġloc al
æĸ° çĸĨ
Ġagain st
æĸ¯ ç§ĳ
çĥ ¯
Ġ é£¾
âĢ¦âĢ¦ âĢĿ
èĢ ķ
éĿ¢ ä¸Ĭ
åĲĪ æĪĲ
å¿ħ çĦ¶
ï¼ Ĳ
åįģ å¤§
Ġs ize
è°ĥ æķĻ
çĪ¶ è¦ª
Ġexper ience
éĥ½ æ²¡æľī
ç§ĺ ä¹¦
æĭ ¨
i ents
ä¸į éľĢè¦ģ
Ġt urn
èĥ Ģ
åĳ¨ å¹´
åŃ¸ ç¿Ĵ
Ġde v
éħ ±
Ġs oc
è¾ĥ ä¸º
åŃ¦ èĢħ
èĢģ å¸«
æ´Ľ é©¬å±±
end ing
ç¿» è¯ĳ
ert ain
éĹ´ çļĦ
ç¶ ±
Ġå¸ķ æ´Ľé©¬å±±
çĩ Ī
å®ĺ åĳĺ
ç¦» åŃĲ
æŃ¥ éª¤
éĽ¶ åĶ®
éĵ ¸
ä¸İ æİ¥å£¤çļĦå¸Ĥéķĩ
åŃ¦ ä½į
å£ ŀ
ç¤¾ äº¤
ä¸°å¯Į çļĦ
ent ion
åĨį åº¦
éĦ Ń
Ġ __
æĹħ å®¢
Ġc ost
Ġf ield
æ£ ļ
èĢĥ å¯Ł
åĹ ¯
éľ ľ
éĤ ĵ
èĢģèĻİ æľº
æ°ĳ ä¼Ĺ
èĸ ĩ
éĿĴ å°ĳå¹´
éĿŀ æ³ķ
å· ·
199 8
å¾Ĺ åĪ°äºĨ
æ£Ģ éªĮ
éĻ¢ æł¡
éĩĬ æĶ¾
å¹´ åºķ
æīĢ éľĢ
ä¸Ń å±±
åı¸ ä»¤
ist r
æī ĩ
åı£ åĳ³
æĽ °
è¿Ļ å°±æĺ¯
äºĴ çĽ¸
ä¾¿ åĪ©
æľª ä¾Ĩ
iv id
éĢ² å£«
g l
en e
æĽ´ æľī
æ· Ģ
Ġg roup
æ¹ĸ åĮĹ
åİŁ æĸĻ
ri es
ç±» çļĦ
ä¹Ł åı¯
åŃ¦ åĳĺ
C T
å·´ å£«
åĲį åįķ
è¿Ļ æĹ¶
ic ally
åı ¹
å±ķ çİ°
ç¬¬äºĮ æ¬¡
åĤ³ çµ±
å°¼ æĸ¯
åĽ½ çļĦ
æĪ¿ åľ°äº§
éĻĦ ä»¶
éĴ Ļ
çĹħ äºº
èª Į
éģİ åİ»
Ġre st
9 3
èĤ¡ æĿĥ
c le
Ġp op
è´¢ äº§
éģ £
å®ĥ æĺ¯
Ġ id
Ġob ject
åī Ĭ
çľĭ èµ·æĿ¥
ver t
Ġap plic
éĶ Ĳ
å»º æĪĲ
ĠN o
æĶ¿ åįı
ä¾ £
çŁĽ çĽ¾
çĽ §
çļĦ çļĦ
åĸ® ä½į
éļı æĹ¶
çĶµè§Ĩ åı°
I F
éĢĢ ä¼ĳ
æĺ¾ èĳĹ
æľĪ çļĦ
B N
ç¯® çĲĥ
å¥³ ç¥ŀ
è®¸ åı¯
å¤ļ äºĨ
éĢı æĺİ
åŁº çĿ£
or ies
è·¯ çº¿
ä¿® å¤į
åĩºçīĪ ç¤¾
åªĴ é«Ķ
Ġinv est
d ict
è¿ĩ æ»¤
æ¯ ħ
åı¦ä¸Ģ æĸ¹éĿ¢
Ġacc ess
è¯Ĭ æĸŃ
ç®Ģ ç§°
Ġd ays
åı Ľ
Ġp ath
= {
ĊĠĠĠĠĠĠĠĠĠĠĠĠĠĠĠĠĠĠĠĠ ĠĠĠĠĠĠĠĠ
éĥ½ å¾Ī
in st
æĪĳ ä¹Ł
åĪĨ ç¦»
ä¼ĳ éĸĴ
çļĦä¸Ģ åĢĭ
æķĻ åłĤ
åľº æīĢ
çľĭ çļĦ
é£ ²
çĶ» éĿ¢
Ġj ob
Ġdef ault
äººåı£å¯Ĩåº¦ æ¯ıå¹³æĸ¹åħ¬éĩĮ
çłĶç©¶ çĶŁ
ä¸ĵä¸ļ çļĦ
çĹħ æĥħ
ä¸ Ļ
å¤§ å¸Ī
7 1
ä¸Ĭ æľī
æıĲ åĪ°
è¨Ī åĬĥ
å½±éŁ³ åħĪéĶĭ
å°İ èĩ´
æĽĿ åħī
æł¡ éķ¿
æ¾³ æ´²
èĪī è¡Į
çĽ ²
èĹ ī
å¼Ģ åħ³
æ© ¡
é§ Ĳ
è° ¨
èģ ª
ab ility
å·¥ åķĨ
a ction
G B
um n
æ¨¡ çī¹
ä¸» ç¾©
èª ¤
èŃ ¯
ç¿ ģ
Ġwe bsite
éĦ °
å¿« æĴŃ
èĤĮ èĤī
å®Įæķ´ çīĪ
çį¨ ç«ĭ
å°Ĭ éĩį
åı ł
u ro
Ġu nt
åĨĻ ä½ľ
m it
æķ µ
æĹł çº¿
og raph
åĪ© äºŀ
å² ¡
æ±Ł è¥¿
åįģ åħŃ
æµ· å²¸
åħ¬ çĽĬ
Ġon line
å°Ĩ åĨĽ
çª Ŀ
å©ļ å§»
ä¸Ĭ çıŃ
i am
æ¡£ æ¡Ī
ou th
çĶµ åķĨ
æ©Ł æ§ĭ
oc us
å¯ ¨
èĮ ²
åİĤ å®¶
å±ģ èĤ¡
åĸ Ĥ
æĭī åħĭ
N A
æĶ¹ è¿Ľ
ç¡¬ ä»¶
ition al
çº· çº·
åľĺ é«Ķ
ar ge
è´Ń çī©
ä¸Ģ åľº
è§ ¸
æľ¬ åľ°
Ġ åĴĮ
ä¼° è®¡
ï¼ī ï¼Ľ
[ "
èĢĮ å·²
é² į
ç§ĳ åŃ¸
ç· ¯
å¤© ç©º
åĮĹ èµ·
å¸Ĥ å§Ķ
ä¸ľ äº¬
åŁºæľ¬ ä¸Ĭ
ä¸įå¾Ĺ ä¸į
å¥³ å£«
ä¸ĵ é¢ĺ
åĲĮåŃ¦ ä»¬
åĩ °
is k
è®© ä»ĸ
è¡Į ç¨ĭ
è© ¢
åº ŀ
å§ ļ
çļĦ æĻĤåĢĻ
é¡µ éĿ¢
ä¸Ģ ä»½
èĳĹ ä½ľ
port s
è·Ŀ éĽ¢
å¤© ä¸»æķĻ
éĽ ŀ
æ³ķ è§Ħ
ç¬¬ ä¸ĥ
ä¿Ŀ åģ¥
æł· åŃĲ
åī§ æĥħ
åį ¸
Ġ ä¸Ń
é¦ ¨
C C
H T
åŃ «
ç£ ·
äºº å®¶
Ġex p
H e
åģ¶ åĥı
ä¼łç»Ł çļĦ
å½ĵ å¹´
ä¸¤ å¹´
åŁº å±Ĥ
Ġst ring
é ´
éļ ±
Ġl ess
æ½ Ķ
èŁ ¹
çİ°åľ¨ çļĦ
æĺ¯ è¦ģ
Ġprov ide
è¾ħ åĬ©
( {
ic ro
Ġ201 5
éĩĳ é¢Ŀ
ä¿¡ ä»»
Ġab le
ç§ģ äºº
Ġp rom
è¢ ģ
å¯¿ åĳ½
å¼Ģ æĪ·
çı Ĭ
] ;
æĺ¯ä¸Ģ åĢĭ
åĪ¶ çļĦ
Ġg ive
Ġ est
ä¸į åıĬ
å¤ı å¤©
åįģ äºĶ
æĵ ħ
è¿Ļ ä½į
