{"<|endoftext|>":0,"<|im_start|>":1,"<|im_end|>":2,"<think>":3,"</think>":4,"<tool_call>":5,"</tool_call>":6,"<tool_response>":7,"</tool_response>":8,"<|reserved_0|>":9,"<|reserved_1|>":10,"<|reserved_2|>":11,"<|reserved_3|>":12,"<|reserved_4|>":13,"<|reserved_5|>":14,"<|reserved_6|>":15,"<|reserved_7|>":16,"<|reserved_8|>":17,"<|reserved_9|>":18,"<|reserved_10|>":19,"<|reserved_11|>":20,"<|reserved_12|>":21,"<|reserved_13|>":22,"<|reserved_14|>":23,"<|reserved_15|>":24,"!":25,"\"":26,"#":27,"$":28,"%":29,"&":30,"'":31,"(":32,")":33,"*":34,"+":35,",":36,"-":37,".":38,"/":39,"0":40,"1":41,"2":42,"3":43,"4":44,"5":45,"6":46,"7":47,"8":48,"9":49,":":50,";":51,"<":52,"=":53,">":54,"?":55,"@":56,"A":57,"B":58,"C":59,"D":60,"E":61,"F":62,"G":63,"H":64,"I":65,"J":66,"K":67,"L":68,"M":69,"N":70,"O":71,"P":72,"Q":73,"R":74,"S":75,"T":76,"U":77,"V":78,"W":79,"X":80,"Y":81,"Z":82,"[":83,"\\":84,"]":85,"^":86,"_":87,"`":88,"a":89,"b":90,"c":91,"d":92,"e":93,"f":94,"g":95,"h":96,"i":97,"j":98,"k":99,"l":100,"m":101,"n":102,"o":103,"p":104,"q":105,"r":106,"s":107,"t":108,"u":109,"v":110,"w":111,"x":112,"y":113,"z":114,"{":115,"|":116,"}":117,"~":118,"¡":119,"¢":120,"£":121,"¤":122,"¥":123,"¦":124,"§":125,"¨":126,"©":127,"ª":128,"«":129,"¬":130,"®":131,"¯":132,"°":133,"±":134,"²":135,"³":136,"´":137,"µ":138,"¶":139,"·":140,"¸":141,"¹":142,"º":143,"»":144,"¼":145,"½":146,"¾":147,"¿":148,"À":149,"Á":150,"Â":151,"Ã":152,"Ä":153,"Å":154,"Æ":155,"Ç":156,"È":157,"É":158,"Ê":159,"Ë":160,"Ì":161,"Í":162,"Î":163,"Ï":164,"Ð":165,"Ñ":166,"Ò":167,"Ó":168,"Ô":169,"Õ":170,"Ö":171,"×":172,"Ø":173,"Ù":174,"Ú":175,"Û":176,"Ü":177,"Ý":178,"Þ":179,"ß":180,"à":181,"á":182,"â":183,"ã":184,"ä":185,"å":186,"æ":187,"ç":188,"è":189,"é":190,"ê":191,"ë":192,"ì":193,"í":194,"î":195,"ï":196,"ð":197,"ñ":198,"ò":199,"ó":200,"ô":201,"õ":202,"ö":203,"÷":204,"ø":205,"ù":206,"ú":207,"û":208,"ü":209,"ý":210,"þ":211,"ÿ":212,"Ā":213,"ā":214,"Ă":215,"ă":216,"Ą":217,"ą":218,"Ć":219,"ć":220,"Ĉ":221,"ĉ":222,"Ċ":223,"ċ":224,"Č":225,"č":226,"Ď":227,"ď":228,"Đ":229,"đ":230,"Ē":231,"ē":232,"Ĕ":233,"ĕ":234,"Ė":235,"ė":236,"Ę":237,"ę":238,"Ě":239,"ě":240,"Ĝ":241,"ĝ":242,"Ğ":243,"ğ":244,"Ġ":245,"ġ":246,"Ģ":247,"ģ":248,"Ĥ":249,"ĥ":250,"Ħ":251,"ħ":252,"Ĩ":253,"ĩ":254,"Ī":255,"ī":256,"Ĭ":257,"ĭ":258,"Į":259,"į":260,"İ":261,"ı":262,"Ĳ":263,"ĳ":264,"Ĵ":265,"ĵ":266,"Ķ":267,"ķ":268,"ĸ":269,"Ĺ":270,"ĺ":271,"Ļ":272,"ļ":273,"Ľ":274,"ľ":275,"Ŀ":276,"ŀ":277,"Ł":278,"ł":279,"Ń":280,"ï¼":281,"ä¸":282,"ï¼Į":283,"ãĢ":284,"çļ":285,"çļĦ":286,"äº":287,"ĠĠ":288,"æľ":289,"ãĢĤ":290,"åı":291,"åħ":292,"å¤":293,"ä»":294,"åľ":295,"å®":296,"åĪ":297,"æĺ":298,"ä½":299,"çĶ":300,"åĲ":301,"è¿":302,"å°":303,"æĸ":304,"æĪ":305,"å¹":306,"ä¹":307,"ä¸Ģ":308,"åĬ":309,"æĹ":310,"Ġt":311,"ãĢģ":312,"åĽ":313,"æĺ¯":314,"åį":315,"åŃ":316,"ç»":317,"in":318,"âĢ":319,"ĠĠĠĠ":320,"åľ¨":321,"Ġa":322,"è¯":323,"äºº":324,"å¸":325,"å¾":326,"er":327,"ä¼":328,"æĿ":329,"æľī":330,"è®":331,"éĢ":332,"æī":333,"ä¸į":334,"éĩ":335,"å·":336,"è¡":337,"å¥":338,"èĢ":339,"åº":340,"on":341,"çī":342,"å¼":343,"äºĨ":344,"he":345,"ä¸Ń":346,"å¹´":347,"å¤§":348,"åĮ":349,"åĩ":350,"æķ":351,"çĽ":352,"re":353,"åĨ":354,"å¯":355,"è§":356,"ĥ½":357,"åĴ":358,"æŃ":359,"å±":360,"at":361,"æĢ":362,"å½":363,"è¦":364,"åĴĮ":365,"Ġs":366,"ç§":367,"æ°":368,"èµ":369,"or":370,"æł":371,"æĶ":372,"æĬ":373,"çİ":374,"éĻ":375,"èĩ":376,"çľ":377,"æ³":378,"ä¸º":379,"ä»¥":380,"en":381,"éģ":382,"ä¸Ĭ":383,"å¿":384,"åİ":385,"Ġthe":386,"éĿ":387,"çº":388,"æİ":389,"è´":390,"åĽ½":391,"20":392,"éĹ":393,"çĶŁ":394,"es":395,"æ²":396,"è¦ģ":397,"an":398,"çĶ¨":399,"æĪĳ":400,"çĲ":401,"æµ":402,"åĵ":403,"it":404,"ï¼ļ":405,"è¡Į":406,"ä¿":407,"æŀ":408,"Ġc":409,"ä¸ª":410,"is":411,"åĳ":412,"æĭ":413,"åĪ°":414,"Ġw":415,"ou":416,"æĥ":417,"æĹ¶":418,"æ¯":419,"æĹ¥":420,"ç«":421,"è½":422,"èĥ½":423,"åĩº":424,"al":425,"åı¯":426,"ï¼ī":427,"éĽ":428,"è¿Ļ":429,"åī":430,"ï¼Ī":431,"æĪĲ":432,"çĤ":433,"åŁ":434,"é¢":435,"å°ı":436,"ar":437,"åľ°":438,"ä½ľ":439,"Ġf":440,"âĢľ":441,"âĢĿ":442,"åŃ¦":443,"ç½":444,"å¦":445,"ç¾":446,"ä¼ļ":447,"ing":448,"å®¶":449,"ä¾":450,"ä¸ĭ":451,"ed":452,"çŃ":453,"Ġp":454,"éĺ":455,"æĻ":456,"æĿ¥":457,"é«":458,"åĢ":459,"æĦ":460,"è¾":461,"æ´":462,"Ġo":463,"Ġb":464,"æ¸":465,"å¤ļ":466,"ĠĠĠ":467,"ä»ĸ":468,"æľĪ":469,"nd":470,"éĥ":471,"åıĳ":472,"æĸ¹":473,"åĪĨ":474,"æ¬":475,"åŃĲ":476,"æĮ":477,"æĽ":478,"èĩª":479,"äºİ":480,"å°±":481,"éķ":482,"åħ¬":483,"le":484,"æ±":485,"å¯¹":486,"ä¹Ł":487,"Ġm":488,"ic":489,"è·":490,"èĤ":491,"èī":492,"æľ¬":493,"é«ĺ":494,"çĲĨ":495,"ion":496,"åģ":497,"æĸ°":498,"éĥ¨":499,"ä¸ļ":500,"om":501,"ç¬":502,"ä¹ĭ":503,"æ³ķ":504,"Ġto":505,"ç¨":506,"å·¥":507,"çĻ":508,"Ġd":509,"Ġin":510,"as":511,"åĲİ":512,"å¸Ĥ":513,"ç®":514,"èĪ":515,"çķ":516,"å¤©":517,"ĊĠĠĠĠ":518,"éĿ¢":519,"ä¸»":520,"æı":521,"åĬ¨":522,"åħ¨":523,"ç´":524,"å»":525,"Ġof":526,"èģ":527,"éĤ":528,"è¶":529,"ç¾İ":530,"ä»¬":531,"è¿ĩ":532,"æĸĩ":533,"ç©":534,"éļ":535,"èĢĮ":536,"Ġand":537,"åĲĮ":538,"é¡":539,"å¥½":540,"æĢ§":541,"çĪ":542,"æľĢ":543,"é£":544,"åħ¶":545,"el":546,"çŁ":547,"åĬĽ":548,"éĥ½":549,"å¥³":550,"å¾Ĺ":551,"åĲĪ":552,"å§":553,"çİ°":554,"åīį":555,"çĦ":556,"çĶµ":557,"æīĢ":558,"çŃī":559,"Ġh":560,"et":561,"201":562,"åº¦":563,"å¿ĥ":564,"å®ļ":565,"æľº":566,"åĬł":567,"åĿ":568,"åĮĸ":569,"å¼Ģ":570,"è¿Ľ":571,"ä¸İ":572,"||":573,"å¦Ĥ":574,"ä½ĵ":575,"éģĵ":576,"ç¤":577,"st":578,"äºĭ":579,"Ġth":580,"èĢħ":581,"ent":582,"é¦":583,"çľĭ":584,"è¢":585,"ç¬¬":586,"çī¹":587,"ä½ł":588,"å¤ĸ":589,"èĬ":590,"è£":591,"è¯´":592,"il":593,"åĵģ":594,"ç»ı":595,"æĥħ":596,"æį":597,"ç³":598,"ct":599,"åıĬ":600,"å®ŀ":601,"åķ":602,"çī©":603,"è°":604,"ro":605,"00":606,"æ°´":607,"ç½ĳ":608,"éĩį":609,"ä½į":610,"è¨":611,"é»":612,"åĲį":613,"å½±":614,"èĲ":615,"å£":616,"åĭ":617,"éĢļ":618,"éĩĮ":619,"åĽł":620,"æģ":621,"ä¸ī":622,"çł":623,"19":624,"è¡¨":625,"Ġre":626,"éľ":627,"çĿ":628,"Ġ||":629,"æŁ":630,"ç¥":631,"æķĻ":632,"äº§":633,"æīĭ":634,"Ġn":635,"å¹³":636,"èĭ":637,"åĪ©":638,"æ¶":639,"åĨħ":640,"å¾Ī":641,"éķ¿":642,"ãĢĭ":643,"å¢":644,"ãĢĬ":645,"åħ¥":646,"ç±":647,"am":648,"éĩı":649,"èī²":650,"çĽ¸":651,"æıĲ":652,"çĦ¶":653,"éĹ´":654,"å»º":655,"è¢«":656,"è¥":657,"æ¯Ķ":658,"Ġl":659,"çģ":660,"éĩĳ":661,"æ¨":662,"çĤ¹":663,"èµ·":664,"åĮº":665,"ä½Ĩ":666,"id":667,"ç³»":668,"æ¼":669,"æľŁ":670,"åħ³":671,"æĺİ":672,"åĸ":673,"æ°ĳ":674,"è¥¿":675,"éħ":676,"åĪ¶":677,"ä½¿":678,"ä¿Ŀ":679,"ä¸Ģä¸ª":680,"è¿ĺ":681,"çĽ®":682,"æ¬¡":683,"..":684,"çĤº":685,"ĠS":686,"å®ī":687,"æĸ¯":688,"åı°":689,"æĦı":690,"åı¯ä»¥":691,"çīĩ":692,"ç§į":693,"ç¨ĭ":694,"æĽ´":695,"å¼ı":696,"ä»£":697,"æİ¥":698,"åİ»":699,"å°Ĩ":700,"æŃ¤":701,"æ·":702,"åľº":703,"æ¡":704,"æķ°":705,"åŁº":706,"æŀľ":707,"æĶ¿":708,"å¸¸":709,"åºĶ":710,"çĥ":711,"ĠT":712,"æĪĸ":713,"im":714,"ç®¡":715,"çĶ±":716,"è®¾":717,"åľĭ":718,"å±ķ":719,"è§Ĩ":720,"æŃ£":721,"è·¯":722,"éŁ":723,"Ġe":724,"èº":725,"ç²":726,"ot":727,"æµ·":728,"éĶ":729,"ĠĠĠĠĠĠĠĠ":730,"èµĦ":731,"ç¦":732,"å½ĵ":733,"ĠI":734,"äºĽ":735,"éĸ":736,"æº":737,"ol":738,"ï¼Ł":739,"èĥ":740,"è½¦":741,"ĠC":742,"åı£":743,"éĤ£":744,"ä¿¡":745,"çº¿":746,"é©":747,"ç¼":748,"ac":749,"Ġg":750,"èĢĥ":751,"äºĮ":752,"ç§ĳ":753,"æĺŁ":754,"èĻ":755,"ad":756,"ve":757,"æĥ³":758,"ï¼ģ":759,"--":760,"åı¸":761,"ä»»":762,"ĠA":763,"ï¼Ľ":764,"éĴ":765,"ig":766,"se":767,"æ´»":768,"èº«":769,"åł":770,"Ġ(":771,"çĿĢ":772,"è³":773,"ur":774,"èª":775,"çĹ":776,"åĮĹ":777,"å¹¶":778,"äº¤":779,"ay":780,"çľģ":781,"ut":782,"200":783,"èİ":784,"Ġy":785,"å±±":786,"æĹł":787,"åĳĺ":788,"çĲĥ":789,"çµ":790,"åİŁ":791,"åĬ¡":792,"10":793,"åįĹ":794,"Ġ=":795,"éĵ":796,"èĢģ":797,"åŀ":798,"æ²¡":799,"è§£":800,"åĽ¾":801,"ä»¶":802,"è®¡":803,"ç«Ļ":804,"çŁ¥":805,"ä»İ":806,"ä¹Ī":807,"èį":808,"å°ĳ":809,"æĦŁ":810,"èĦ":811,"ow":812,"çı":813,"åįģ":814,"ç«ĭ":815,"æ»":816,"ç¶":817,"åģļ":818,"ĊĠĠĠ":819,"åħĥ":820,"Ġis":821,"åıª":822,"æĴ":823,"æµģ":824,"åĻ":825,"ç¡":826,"ãĢĮ":827,"éĻ¢":828,"Ġfor":829,"åŁİ":830,"èĩ³":831,"å·²":832,"ãĢį":833,"æĵ":834,"æĪĳä»¬":835,"æł¼":836,"æ®":837,"åħĭ":838,"ĊĠĠĠĠĠĠĠ":839,"å¨":840,"æĬĢ":841,"ç©º":842,"æľĥ":843,"é¢ĺ":844,"æ£":845,"å·±":846,"çĸ":847,"çľŁ":848,"éª":849,"ä¸ĸ":850,"å°Ķ":851,"ver":852,"è²":853,"ation":854,"éł":855,"æł·":856,"æĤ":857,"æĸ¼":858,"èĳ":859,"æĸĻ":860,"åĲĳ":861,"ch":862,"ä¸ŃåĽ½":863,"if":864,"çĽ´":865,"æĻĤ":866,"åķĨ":867,"èĩªå·±":868,"ly":869,"æľ¯":870,"åħ¬åı¸":871,"åĽŀ":872,"æĶ¾":873,"å¾·":874,"Ġon":875,"éľĢ":876,"ĠM":877,"æľį":878,"åıĹ":879,"ç»Ł":880,"åĲĦ":881,"éĹ®":882,"Ġyou":883,"Ġbe":884,"åŀĭ":885,"Ġst":886,"åĻ¨":887,"çĭ":888,"Ġu":889,"ç»ĵ":890,"od":891,"å²":892,"æį®":893,"æ¢":894,"ä¸ľ":895,"åıĤ":896,"ä¸¤":897,"æ¥":898,"å¸ĥ":899,"è¿ĳ":900,"èŃ":901,"éĽĨ":902,"ce":903,"æĮģ":904,"Â·":905,"æ°Ķ":906,"æīĵ":907,"åħī":908,"åĶ":909,"ul":910,"åĥ":911,"åĦ":912,"æĭī":913,"ĠP":914,"å¤ª":915,"ag":916,"th":917,"æĶ¶":918,"èĮ":919,"è±":920,"é£İ":921,"åħ±":922,"æ±Ĥ":923,"å½¢":924,"å¤Ħ":925,"å®Į":926,"éĢł":927,"ç¤¾":928,"ir":929,"è©":930,"å·¥ä½ľ":931,"åħĪ":932,"ter":933,"ç¤º":934,"å¼º":935,"ä¹Ĳ":936,"è¿Ĳ":937,"çłĶ":938,"ith":939,"éĹ¨":940,"åįķ":941,"æ¯ı":942,"åĮħ":943,"èı":944,"å¸Ī":945,"åıĺ":946,"å·ŀ":947,"æĮĩ":948,"åĽĽ":949,"ä¼ł":950,"æĢ»":951,"ç»Ħ":952,"ç¥ŀ":953,"æłĩ":954,"éĢī":955,"å¥¹":956,"ĠB":957,"è»":958,"çħ":959,"æ²»":960,"å¯¼":961,"æºĲ":962,"åħ·":963,"çº§":964,"æ¸¸":965,"æ¸ħ":966,"å¾Į":967,"å¡":968,"å®¹":969,"è®©":970,"éº":971,"çķĮ":972,"æĬ¥":973,"è´¨":974,"æĶ¹":975,"çĻ½":976,"æŀĹ":977,"æ¼Ķ":978,"è¯¥":979,"åĢĭ":980,"èģĶ":981,"æħ":982,"12":983,"ĠĊ":984,"èĬ±":985,"æł¡":986,"Ġthat":987,"ä¸ĵ":988,"çĪ±":989,"åĪĹ":990,"çİĭ":991,"æķ´":992,"æķĪ":993,"éĿŀ":994,"åĨį":995,"ä»Ģ":996,"ap":997,"çĶ·":998,"æ³¨":999,"ate":1000,"åĤ":1001,"å¤´":1002,"æ²¡æľī":1003,"éŁ³":1004,"æİ¨":1005,"ç±»":1006,"est":1007,"ä¾Ĩ":1008,"å£«":1009,"âĢĶ":1010,"ä»·":1011,"ç·":1012,"åıĭ":1013,"ç»Ļ":1014,"å¿«":1015,"èħ":1016,"èĤ²":1017,"è®°":1018,"ä½¿çĶ¨":1019,"åĪ«":1020,"è¿Ľè¡Į":1021,"ab":1022,"è´¹":1023,"æģ¯":1024,"æĬĬ":1025,"åŃ¸":1026,"âĢĻ":1027,"éĢĻ":1028,"æīį":1029,"é¦ĸ":1030,"è¾¾":1031,"è§Ħ":1032,"un":1033,"åıĸ":1034,"å®¢":1035,"ä¾Ľ":1036,"é©¬":1037,"Ġwith":1038,"ç²¾":1039,"æĪĺ":1040,"æĳ":1041,"æĺĵ":1042,"ä½ķ":1043,"å¢ŀ":1044,"åıĪ":1045,"é¢ĳ":1046,"ers":1047,"11":1048,"em":1049,"å°±æĺ¯":1050,"op":1051,"è°ĥ":1052,"æĬķ":1053,"um":1054,"èĪĩ":1055,"åĬŁ":1056,"ä»Ĭ":1057,"ä¸ĩ":1058,"ç©¶":1059,"å®ĥ":1060,"å§ĭ":1061,"ä¼ģ":1062,"ĠD":1063,"å¤ĩ":1064,"èĭ±":1065,"çīĪ":1066,"Ġit":1067,"å¸¦":1068,"åĪĽ":1069,"us":1070,"ä¹¦":1071,"ri":1072,"æĪ¿":1073,"èĬĤ":1074,"æ¨¡":1075,"è¶ħ":1076,"ĠR":1077,"åıį":1078,"è¶³":1079,"Ġcon":1080,"åį¡":1081,"è§Ĥ":1082,"Ġas":1083,"**":1084,"æŃ¥":1085,"æĲ":1086,"çİĩ":1087,"åı·":1088,"æŁ¥":1089,"åŃĹ":1090,"åĭķ":1091,"ç±³":1092,"æļ":1093,"æĶ¯":1094,"æ¹":1095,"æ©":1096,"è£ħ":1097,"éĢŁ":1098,"éŃ":1099,"çĮ":1100,"ke":1101,"éĽ»":1102,"è§ģ":1103,"è®¤":1104,"ort":1105,"äºļ":1106,"çĹħ":1107,"æĴŃ":1108,"æ·±":1109,"Ġwh":1110,"ĠH":1111,"äºĶ":1112,"Ġ1":1113,"ist":1114,"åĨĽ":1115,"Ġ\"":1116,"ht":1117,"åŃ©":1118,"ĠW":1119,"qu":1120,"pe":1121,"ill":1122,"æ¶Ī":1123,"é¡¹":1124,"çĬ":1125,"æĪ·":1126,"oc":1127,"è¼":1128,"ĠL":1129,"ç¢":1130,"Ġal":1131,"ess":1132,"ĠF":1133,"é£Ł":1134,"è½¬":1135,"éĺ²":1136,"âĢ¦":1137,"ĠĠĠĠĠĠĠ":1138,"é¾":1139,"èĳĹ":1140,"éķĩ":1141,"åŃĺ":1142,"æ¡Ī":1143,"æł¹":1144,"è®º":1145,"éĺ¿":1146,"å±Ģ":1147,"åıĳå±ķ":1148,"çĻ¼":1149,"Ġan":1150,"ä½İ":1151,"èĹ":1152,"out":1153,"åĦ¿":1154,"and":1155,"è¶Ĭ":1156,"é¦Ļ":1157,"æĹ¶éĹ´":1158,"çĥŃ":1159,"é¥":1160,"å¼ķ":1161,"è¯Ŀ":1162,"æľª":1163,"å§Ķ":1164,"Ġv":1165,"è¾ĥ":1166,"éĺŁ":1167,"ä¸Ķ":1168,"ä¹ł":1169,"çłĶç©¶":1170,"åĥı":1171,"çİ¯":1172,"çª":1173,"å¹¿":1174,"åĳ¨":1175,"ãĥ":1176,"åĩĨ":1177,"çħ§":1178,"è¡ĮæĺŁ":1179,"éĻ¤":1180,"åįİ":1181,"è¯ģ":1182,"èµ°":1183,"äº¬":1184,"çĨ":1185,"éħį":1186,"ew":1187,"res":1188,"Ġ{":1189,"Ġpro":1190,"ç½®":1191,"éĹ®é¢ĺ":1192,"åįĢ":1193,"åį³":1194,"éľĢè¦ģ":1195,"å°ıè¡ĮæĺŁ":1196,"çĻ¾":1197,"rom":1198,"çļĦäºº":1199,"æŀĦ":1200,"åįļ":1201,"ç¯":1202,"ç®¡çĲĨ":1203,"æĹ¥æľ¬":1204,"å·´":1205,"ç¿":1206,"å¦Ĥæŀľ":1207,"åĬ©":1208,"æĸ½":1209,"èµĽ":1210,"åĢĻ":1211,"ĠN":1212,"å¢ĥ":1213,"ç®Ĺ":1214,");":1215,"èĴ":1216,"åĳĬ":1217,"å³":1218,"our":1219,"ä¾¿":1220,"çļĦä¸Ģ":1221,"åħį":1222,"åºĹ":1223,"æĿĥ":1224,"éĻĲ":1225,"ä»ĸä»¬":1226,"av":1227,"ä¼ģä¸ļ":1228,"æİĴ":1229,"è¯ķ":1230,"æ®µ":1231,"é¢Ĩ":1232,"çį":1233,"è¯Ń":1234,"ç¡®":1235,"å©":1236,"Ġde":1237,"ï¼īï¼Į":1238,"è§Ĩé¢ĳ":1239,"æ¿":1240,"åĩł":1241,"ä¼ĺ":1242,"ain":1243,"ĠG":1244,"éĻħ":1245,"æĬĢæľ¯":1246,"æĢĿ":1247,"Ġ-":1248,"å°į":1249,"å¿ħ":1250,"os":1251,"æĿĳ":1252,"åĵ¡":1253,"åĬŀ":1254,"åĨ³":1255,"ç§°":1256,"åı²":1257,"èĲ½":1258,"ç»´":1259,"æĿ¡":1260,"çĵ":1261,"åĢ¼":1262,"æİ§":1263,"åı¯èĥ½":1264,"é¤":1265,"å°¼":1266,"åºľ":1267,"Ġr":1268,"ore":1269,"çģ«":1270,"30":1271,"ä»Ģä¹Ī":1272,"ç¬¬ä¸Ģ":1273,"èĲ¥":1274,"Ġor":1275,"è¯Ĩ":1276,"å¾Ģ":1277,"ç³»ç»Ł":1278,"è®®":1279,"ĠE":1280,"ĊĠĠĠĠĠĠĠĠĠĠĠĠ":1281,"åĳ½":1282,"----":1283,"åĮ»":1284,"éªĮ":1285,"ç½Ĺ":1286,"æĢģ":1287,"åĲĥ":1288,"ex":1289,"ere":1290,"ä¿®":1291,"çľ¼":1292,"è¿Ļä¸ª":1293,"åįĩ":1294,"éĿĴ":1295,"è½½":1296,"ãģ":1297,"ä¸ĸçķĮ":1298,"éģİ":1299,"Ġare":1300,"æ¬¾":1301,"è§Ĵ":1302,"éĢļè¿ĩ":1303,"å¤į":1304,"com":1305,"èĤ¡":1306,"çº¦":1307,"ç¸":1308,"å¼ł":1309,"è¨Ģ":1310,"ä½ı":1311,"18":1312,"ä»½":1313,"æĬ¤":1314,"èĩ´":1315,"åŃ¦çĶŁ":1316,"ç´ł":1317,"éĸĭ":1318,"Ġcom":1319,"å¹²":1320,"15":1321,"è¯·":1322,"ãĢĤâĢĿ":1323,"Ġ200":1324,"å®ĺ":1325,"å¤«":1326,"æĺ¯ä¸Ģ":1327,"æľįåĬ¡":1328,"åĪĻ":1329,"ä¸»è¦ģ":1330,"ame":1331,"åĽ¢":1332,"ç¦ı":1333,"Ġex":1334,"Ġ'":1335,"nt":1336,"æĻ¯":1337,"åŁŁ":1338,"çĽĳ":1339,"çŁ³":1340,"åı¤":1341,"ww":1342,"ld":1343,"é»ĳ":1344,"æ¸¯":1345,"æĿĲ":1346,"å¤±":1347,"å±ŀ":1348,"æµĭ":1349,"æľĽ":1350,"ĊĠĠĠĠĠĠĠĠĠĠĠ":1351,"éķ·":1352,"å½©":1353,"æ´²":1354,"æĻ®":1355,"å®¤":1356,"è±¡":1357,"çīĮ":1358,"å¯Ĩ":1359,"ment":1360,"pl":1361,"Ġhe":1362,"æ²³":1363,"éļ¾":1364,"elf":1365,"Ġat":1366,"ç§¯":1367,"åİĭ":1368,"art":1369,"ity":1370,"ä¸įæĺ¯":1371,"å¾®":1372,"è§ī":1373,"æ©Ł":1374,"åĽłä¸º":1375,"end":1376,"ä¹ī":1377,"æķħ":1378,"|-":1379,"åħ»":1380,"åĨµ":1381,"æ±Ł":1382,"çĶŁæ´»":1383,"port":1384,"æ²¹":1385,"æ¯į":1386,"æīĢä»¥":1387,"Ġthis":1388,"ç»Ń":1389,"ä»¥åıĬ":1390,"æĭį":1391,"çĶµå½±":1392,"ĠThe":1393,"éĩĩ":1394,"ction":1395,"æŀģ":1396,"æĿİ":1397,"æıĲä¾Ľ":1398,"çı¾":1399,"è«":1400,"æ½":1401,"åŃ£":1402,"ç¦»":1403,"æĹ©":1404,"ç¶ĵ":1405,"og":1406,"ãĤ":1407,"ue":1408,"ç¾İåĽ½":1409,"æĩ":1410,"é«Ķ":1411,"åŃ©åŃĲ":1412,"åľŁ":1413,"é»Ħ":1414,"åħļ":1415,"æķĻèĤ²":1416,"ĠO":1417,"pt":1418,"ant":1419,"å£°":1420,"ave":1421,"è¾¹":1422,"åº§":1423,"å¸Ĥåľº":1424,"ä¸ŃçļĦ":1425,"æĽ²":1426,"ĉĉ":1427,"æĪı":1428,"èİ·":1429,"åİĨ":1430,"è¿ŀ":1431,"æŃ»":1432,"è»Ĭ":1433,"æ³¢":1434,"ight":1435,"ç¼ĸ":1436,"åĸľ":1437,"éĸĵ":1438,"all":1439,"çĩ":1440,"éļı":1441,"æĽ¾":1442,"è·Ł":1443,"ä¸įåĲĮ":1444,"èŀ":1445,"èīº":1446,"äº§åĵģ":1447,"åľ¨çº¿":1448,"è®¾è®¡":1449,"åĵį":1450,"å®Ŀ":1451,"è¦ĸ":1452,"äººçļĦ":1453,"æ¦":1454,"åºķ":1455,"çº¢":1456,"å®īåħ¨":1457,"ub":1458,"åĪĿ":1459,"æĺ¾":1460,"Ġ2":1461,"åĪĴ":1462,"ä¾ĭ":1463,"éĩįè¦ģ":1464,"åĢĳ":1465,"æ¸©":1466,"èģĮ":1467,"å¥ĩ":1468,"ç«ł":1469,"éĥ¨åĪĨ":1470,"åĽ½å®¶":1471,"//":1472,"æĸŃ":1473,"åįĬ":1474,"åĺ":1475,"Ġse":1476,"æ»¡":1477,"Ġwe":1478,"åĪĩ":1479,"äºĨä¸Ģ":1480,"æµİ":1481,"è®¸":1482,"ive":1483,"å·²ç»ı":1484,"èªª":1485,"éħĴ":1486,"æĹħ":1487,"ack":1488,"è¯»":1489,"ç´¢":1490,"é¢Ħ":1491,"çĪ¾":1492,"ä½Ĩæĺ¯":1493,"16":1494,"Ġnot":1495,"å¤ľ":1496,"ust":1497,"åıĥ":1498,"Ġfrom":1499,"çİ©":1500,"çĳ":1501,"éĢ²":1502,"...":1503,"æī¾":1504,"ç¾¤":1505,"æĿ¿":1506,"è¯¾":1507,"è¡Ģ":1508,"ä¼Ĺ":1509,"Ġ}":1510,"ä»ĭ":1511,"æĻº":1512,"ä¿¡æģ¯":1513,"éĨ":1514,"å¸Į":1515,"age":1516,"ä¸¦":1517,"iv":1518,"åħ¶ä»ĸ":1519,"çıŃ":1520,"æĹ¶åĢĻ":1521,"ĊĠ":1522,"åĽŃ":1523,"è¯Ħ":1524,"Ġå°ıè¡ĮæĺŁ":1525,"æĭ¬":1526,"50":1527,"éĢĤ":1528,"Ġwas":1529,"åħŃ":1530,"å¸Ĥéķĩ":1531,"ä¾Ŀ":1532,"éĻį":1533,"åĽ¾çīĩ":1534,"æĮī":1535,"æķ°æį®":1536,"æ¥Ń":1537,"æĸ¹éĿ¢":1538,"å¾Īå¤ļ":1539,"ies":1540,"å±Ĥ":1541,"åĬ¿":1542,"çķĻ":1543,"åł´":1544,"æĹı":1545,"åı¦":1546,"å±ħ":1547,"ç»Ĩ":1548,"çŁ¥éģĵ":1549,"æľĿ":1550,"çĶ»":1551,"èĮĥ":1552,"å¤§å®¶":1553,"æĢİ":1554,"æĶ¿åºľ":1555,"åª":1556,"å¤§çļĦ":1557,"éĺ³":1558,"çķ¶":1559,"è´£":1560,"é²":1561,"ard":1562,"åº·":1563,"åİ¿":1564,"æ´»åĬ¨":1565,"ä¸Ńå¿ĥ":1566,"ine":1567,"ok":1568,"éĻ©":1569,"ud":1570,"å¤Ł":1571,"è¦ģæ±Ĥ":1572,"iz":1573,"è³ĩ":1574,"åıĮ":1575,"å¼Ģå§ĭ":1576,"åĮħæĭ¬":1577,"æĿ±":1578,"äºĴ":1579,"èĸ":1580,"ç¥¨":1581,"ass":1582,"æŃ¦":1583,"æ£Ģ":1584,"ure":1585,"èĪ¬":1586,"åĿĩ":1587,"å¿µ":1588,"Ġtr":1589,"åĲ§":1590,"çĬ¶":1591,"âĢĿï¼Į":1592,"ä¹Łæĺ¯":1593,"æŃ¢":1594,"()":1595,"Ġsh":1596,"199":1597,"ä¹°":1598,"ç·ļ":1599,"åģ¥":1600,"çİ°åľ¨":1601,"çļĦæĺ¯":1602,"éĢģ":1603,"ect":1604,"æĸ¹å¼ı":1605,"per":1606,"13":1607,"one":1608,"Ġby":1609,"äººæ°ĳ":1610,"èĺ":1611,"Ġif":1612,"åĵª":1613,"é¾Ļ":1614,"è¿ĻäºĽ":1615,"åĳ³":1616,"urn":1617,"åıĤèĢĥ":1618,"äºŀ":1619,"Ġch":1620,"åĨľ":1621,"14":1622,"åħħ":1623,"æīĢæľī":1624,"è¿Ļæł·":1625,"æĥħåĨµ":1626,"åĨĻ":1627,"åĲĮæĹ¶":1628,"åħ§":1629,"éĥ½æĺ¯":1630,"17":1631,"ial":1632,"ip":1633,"ä»¤":1634,"å°ĩ":1635,"æĸĩåĮĸ":1636,"æĵį":1637,"ç¤¾ä¼ļ":1638,"å¾ĭ":1639,"äº²":1640,"Ġ*":1641,"æŃĮ":1642,"æ¿Ģ":1643,"ĠJ":1644,"å¤§åŃ¦":1645,"ä¸ĬçļĦ":1646,"22":1647,"èŃ¦":1648,"éĿŀå¸¸":1649,"æľ¨":1650,"Ġhave":1651,"ç»ıæµİ":1652,"ä»ħ":1653,"åŃ¦ä¹ł":1654,"åįĥ":1655,"éĽ·":1656,"äººåı£":1657,"ind":1658,"è¡¨ç¤º":1659,"åį´":1660,"åħ¶ä¸Ń":1661,"åĪ°äºĨ":1662,"æ¾":1663,"åį°":1664,"æī¿":1665,"ge":1666,"å¿Ĺ":1667,"åĩ»":1668,"æĸ¹æ³ķ":1669,"åħ«":1670,"å¯Į":1671,"åĲĹ":1672,"ost":1673,"é¸":1674,"cl":1675,"æĤ¨":1676,"æ¬¢":1677,"å®³":1678,"ç»Ī":1679,"èĽ":1680,"å¥½çļĦ":1681,"èĥ½åĬĽ":1682,"ä¹ħ":1683,"çł´":1684,"èĩªå·±çļĦ":1685,"æł¸":1686,"åįı":1687,"Ġyour":1688,"==":1689,"è³½":1690,"æĺ¥":1691,"çĽĬ":1692,"å½±åĵį":1693,"éĴ±":1694,"è½»":1695,"éĵģ":1696,"ç®Ģ":1697,"çłģ":1698,"ff":1699,"èŀį":1700,"æ¸¸æĪı":1701,"å·®":1702,"ç¹":1703,"æĭ©":1704,"çļ®":1705,"ç£":1706,"æľīä¸Ģ":1707,"Ġ201":1708,"åħ°":1709,"æŀĲ":1710,"ast":1711,"ï¼ļâĢľ":1712,"èĨ":1713,"±ä¹Ĳ":1714,"ç¶²":1715,"æ¤":1716,"åĽłæŃ¤":1717,"rou":1718,"Ġcan":1719,"æ¼«":1720,"are":1721,"éĹľ":1722,"åĲ¸":1723,"å°Ħ":1724,"çĪ¶":1725,"äº«":1726,"åĽ½éĻħ":1727,"con":1728,"åģľ":1729,"ell":1730,"ç¬¬äºĮ":1731,"æĪĲä¸º":1732,"åī¯":1733,"ç½ĳç«Ļ":1734,"è¿ľ":1735,"25":1736,"åĽ´":1737,"ak":1738,"éĶĢ":1739,"ä¸¾":1740,"Ġle":1741,"çŁŃ":1742,"åħ¬éĩĮ":1743,"éĮ":1744,"ä¸įèĥ½":1745,"çŃĸ":1746,"çº³":1747,"çµĲ":1748,"å³°":1749,"ç¾İå¥³":1750,"æľĭ":1751,"ice":1752,"ra":1753,"ä¼Ĭ":1754,"å°ıè¯´":1755,"çĽ®åīį":1756,"æĻļ":1757,"éĢīæĭ©":1758,"é»ŀ":1759,"çªģ":1760,"å½ķ":1761,"å¤ı":1762,"åłĤ":1763,"è´Ń":1764,"çºª":1765,"èį¯":1766,"çĶ°":1767,"èĪª":1768,"åĲ¦":1769,"åĶ®":1770,"åĲ«":1771,"äºĳ":1772,"åŁ¹":1773,"æį¢":1774,"è¿ĺæĺ¯":1775,"åĲ¬":1776,"ult":1777,"ä¹Ŀ":1778,"å¯¹äºİ":1779,"ç«¯":1780,"åĳ¢":1781,"ç§»":1782,"Ġ0":1783,"çĦ¡":1784,"åıĳçİ°":1785,"ĠU":1786,"æĪ°":1787,"èĤī":1788,"çĻ»":1789,"ï¼īãĢĤ":1790,"ç»ĩ":1791,"è¿ĩç¨ĭ":1792,"ould":1793,"è´Ł":1794,"ä½ľä¸º":1795,"éģĭ":1796,"éĤĦ":1797,"ç»ľ":1798,"orm":1799,"able":1800,"è®²":1801,"è¨Ń":1802,"å®£":1803,"åĵĪ":1804,"å¯Ł":1805,"çĽ¸åħ³":1806,"åŁİå¸Ĥ":1807,"éģ¸":1808,"ä¸ĥ":1809,"æľĭåıĭ":1810,"ä¸¥":1811,"ä»£è¡¨":1812,"è»į":1813,"Ġj":1814,"èĵ":1815,"é¡¹çĽ®":1816,"24":1817,"åĨħå®¹":1818,"å¨ģ":1819,"ä¸ĭè½½":1820,"Ġwill":1821,"ĠK":1822,"è¡£":1823,"åĸĦ":1824,"èī¯":1825,"è¿°":1826,"ide":1827,"åģĩ":1828,"èįī":1829,"âĢĿãĢĤ":1830,"å¹³åı°":1831,"åĬŁèĥ½":1832,"äºī":1833,"å¯¦":1834,"æĭ¿":1835,"',":1836,"ile":1837,"åĩı":1838,"æ²Ļ":1839,"ire":1840,"ç¨®":1841,"âĢĶâĢĶ":1842,"çķ¥":1843,"ord":1844,"èĴĻ":1845,"ãĢĲ":1846,"ãĢĳ":1847,"å·¥ç¨ĭ":1848,"åĵ¥":1849,"æĬķèµĦ":1850,"ä¸ĢèĪ¬":1851,"åĮĹäº¬":1852,"å¨±ä¹Ĳ":1853,"é£ŀ":1854,"é¦Ļæ¸¯":1855,"åħ´":1856,"çĸĹ":1857,"ans":1858,"ime":1859,"Ġpl":1860,"int":1861,"éĵ¶":1862,"ork":1863,"ä¸ĵä¸ļ":1864,"çİ¯å¢ĥ":1865,"ä¸ĢäºĽ":1866,"000":1867,"ä¼¼":1868,"åī§":1869,"å¦Ĥä½ķ":1870,"çģ£":1871,"ear":1872,"21":1873,"å¸®":1874,"æ¹ĸ":1875,"å¥ĸ":1876,"å»ºè®¾":1877,"ä¸Ŀ":1878,"Ġab":1879,"turn":1880,"ob":1881,"23":1882,"å¡Ķ":1883,"åĩºçİ°":1884,"æİ§åĪ¶":1885,"ia":1886,"æ¨Ĥ":1887,"çĭ¬":1888,"Ġk":1889,"åĲī":1890,"è´§":1891,"æ´Ľ":1892,"æŁĲ":1893,"åıĳçĶŁ":1894,"get":1895,"èĥĮ":1896,"è´¢":1897,"é¼":1898,"ç½ĳç»ľ":1899,"é¦¬":1900,"60":1901,"é¤Ĳ":1902,"40":1903,"Ġ3":1904,"çĮ®":1905,"å¾ħ":1906,"Ġall":1907,"åħ¸":1908,"åĨ·":1909,"'s":1910,"çīĽ":1911,"Ġim":1912,"æ²Ĵ":1913,"å¦»":1914,"ä»ĸçļĦ":1915,"ç¬ĳ":1916,"å²ģ":1917,"åĪĨæŀĲ":1918,"å¤ĦçĲĨ":1919,"çĶŁäº§":1920,"ĊĊ":1921,"æ¬§":1922,"ä¼¦":1923,"éĻĦ":1924,"ail":1925,"è¿Ļç§į":1926,"æĦĽ":1927,"ace":1928,"è£¡":1929,"åħ·æľī":1930,"Ġself":1931,"åĿĢ":1932,"è½¯":1933,"å¥¥":1934,"æīĭæľº":1935,"éĿ©":1936,"Ġsu":1937,"The":1938,"æ´¾":1939,"äº¿":1940,"åħ©":1941,"æīĺ":1942,"åºı":1943,"æī¹":1944,"éĢ£":1945,"æł¹æį®":1946,"å·¦":1947,"ä¸Ģå®ļ":1948,"80":1949,"ath":1950,"å¥Ĺ":1951,"ep":1952,"ä½ľåĵģ":1953,"åħµ":1954,"è¡Ĺ":1955,"èĥ½å¤Ł":1956,"âĢ¦âĢ¦":1957,"è¿½":1958,"åį«":1959,"ook":1960,"Ġus":1961,"ĠSt":1962,"éĩİ":1963,"æĪĳçļĦ":1964,"çĵ¦":1965,"æ±½":1966,"ions":1967,"æĿ¾":1968,"ong":1969,"çĨŁ":1970,"ï½":1971,"ĠV":1972,"éļĬ":1973,"ase":1974,"ome":1975,"ign":1976,"éľ²":1977,"èĭı":1978,"é½":1979,"ç§Ģ":1980,"éĶĻ":1981,"æ¯Ľ":1982,"pp":1983,"å°½":1984,"ç»Ħç»ĩ":1985,"ç²ī":1986,"åĪ»":1987,"äººåĳĺ":1988,"åºĶçĶ¨":1989,"ä¸Ģèµ·":1990,"cc":1991,"æĶ»":1992,"Ġcl":1993,"è©²":1994,"èĢĮä¸Ķ":1995,"ä¼¤":1996,"ib":1997,"é¬":1998,"å¤®":1999,"é±":2000,"éĢı":2001,"çľĭåĪ°":2002,"åľĸ":2003,"æıĲé«ĺ":2004,"æķ¸":2005,"ata":2006,"åºŃ":2007,"åı³":2008,"éĢĢ":2009,"hen":2010,"ef":2011,"Ġad":2012,"æĿ¥çļĦ":2013,"éģĩ":2014,"æĶ¿æ²»":2015,"èĭ¥":2016,"æ§":2017,"ä»ĺ":2018,"æĭħ":2019,"å¼Ĥ":2020,"é¡»":2021,"æ¯Ķè¾ĥ":2022,"ç©¿":2023,"çĶ±äºİ":2024,"å·Ŀ":2025,"æ£®":2026,"å¹´çļĦ":2027,"åĭĻ":2028,"ä½³":2029,"è®¾å¤ĩ":2030,"Ġdo":2031,"Ġres":2032,"çĶļ":2033,"è¨Ī":2034,"ä½ľçĶ¨":2035,"ĠTh":2036,"ich":2037,"__":2038,"èĹı":2039,"ä¹ĭåĲİ":2040,"çĴ":2041,"çŃĳ":2042,"2017":2043,"è¾ĵ":2044,"ç»Ŀ":2045,"Ġgo":2046,"çĽĺ":2047,"ä¸´":2048,"çĽ´æİ¥":2049,"ite":2050,"è®Ń":2051,"ç³»åĪĹ":2052,"äºĨè§£":2053,"ç¼º":2054,"Ġhas":2055,"åĲĪä½ľ":2056,"è¿Ļä¸Ģ":2057,"ä»į":2058,"ç»§":2059,"åĪļ":2060,"èıľ":2061,"ext":2062,"çļĩ":2063,"æĬĹ":2064,"ç´§":2065,"åľ°æĸ¹":2066,"è®¤ä¸º":2067,"ally":2068,"ry":2069,"æĪĸèĢħ":2070,"ance":2071,"éŁ©":2072,"åĨł":2073,"to":2074,"çļĦæĹ¶åĢĻ":2075,"å¹³æĸ¹":2076,"å®ĮæĪĲ":2077,"å¦ĩ":2078,"ake":2079,"æģ©":2080,"æŀ¶":2081,"Ġ/":2082,"åįĪ":2083,"éģĶ":2084,"ated":2085,"æİ¢":2086,"act":2087,"28":2088,"çĶ¢":2089,"æĭĽ":2090,"ä¸ªäºº":2091,"ll":2092,"èµĦæºĲ":2093,"åªĴ":2094,"èĺŃ":2095,"ĠIn":2096,"çĶ¨æĪ·":2097,"--------":2098,"Ġout":2099,"æĽ´å¤ļ":2100,"2016":2101,"å®ŀçİ°":2102,"éŃĶ":2103,"è¡¥":2104,"é¦Ĩ":2105,"æ´ĭ":2106,"åŁºæľ¬":2107,"æ°¸":2108,"çŃĶ":2109,"éĵ¾":2110,"åŃ¦æł¡":2111,"å¾ŀ":2112,"ï¼Īï¼ī":2113,"27":2114,"ç¸½":2115,"èİ±":2116,"ä¸ºäºĨ":2117,"ĊĠĠĠĠĠĠĠĠĠĠĠĠĠĠĠ":2118,"æĶ¯æĮģ":2119,"å©ļ":2120,"æĤ£":2121,"å¸ĮæľĽ":2122,"åŃĺåľ¨":2123,"çĽŁ":2124,"æ³¨æĦı":2125,"å·¨":2126,"26":2127,"æŁĵ":2128,"ype":2129,"éĬ":2130,"èİ·å¾Ĺ":2131,"ĊĊĠĠĠ":2132,"å¦Ī":2133,"éĻĪ":2134,"èĻ½":2135,"åĭĴ":2136,"æ¶²":2137,"æĿĲæĸĻ":2138,"),":2139,"æ³°":2140,"æĢİä¹Ī":2141,"æİĪ":2142,"è¡Įä¸ļ":2143,"\",":2144,"Ġreturn":2145,"ĊĠĠĠĠĠ":2146,"å¸Ń":2147,"çĶ²":2148,"Ġcont":2149,"www":2150,"äº®":2151,"åı«":2152,"è¸":2153,"ä¸įä¼ļ":2154,"åĸ®":2155,"Ġen":2156,"çĶ³":2157,"Ġbut":2158,"å¸Ŀ":2159,"è½®":2160,"æ¯Ĵ":2161,"ert":2162,"èĦĳ":2163,"æ³ķåĽ½":2164,"ä½Ľ":2165,"ä½įäºİ":2166,"ang":2167,"å²Ľ":2168,"Ġup":2169,"åºĵ":2170,"æıĴ":2171,"åĬĩ":2172,"é¢Ŀ":2173,"èı¯":2174,"ç¾ħ":2175,"æĩī":2176,"Ġme":2177,"ĠâĢľ":2178,"=\"":2179,"ä¹İ":2180,"ç»į":2181,"ç»ĥ":2182,"ï¼ĮâĢľ":2183,"åķĬ":2184,"é±¼":2185,"ç§ĳåŃ¦":2186,"å¢ŀåĬł":2187,"æĿĢ":2188,"Ġcomp":2189,"ä¸½":2190,"æ¥¼":2191,"æłĩåĩĨ":2192,"....":2193,"åħ¨åĽ½":2194,"ä¸ĢçĽ´":2195,"St":2196,"å´":2197,"å¡ŀ":2198,"å«":2199,"åĽº":2200,"åħįè´¹":2201,"åĿļ":2202,"å¦¹":2203,"åİĨåı²":2204,"ç§ĳæĬĢ":2205,"èľ":2206,"form":2207,"éĿł":2208,"èģļ":2209,"æ±ī":2210,"è®ĵ":2211,"æ´Ĺ":2212,"æī§":2213,"éĺħ":2214,"åľ°åĮº":2215,"èĪŀ":2216,"ç¡Ģ":2217,"ther":2218,"çģµ":2219,"åĿĹ":2220,"ä½łçļĦ":2221,"è¿Ļæĺ¯":2222,"ie":2223,"å¸«":2224,"åŁºç¡Ģ":2225,"ç«¥":2226,"éĽ¨":2227,"gh":2228,"è¿ĺæľī":2229,"å®Ī":2230,"éļľ":2231,"å®¡":2232,"so":2233,"çµĦ":2234,"ä»»ä½ķ":2235,"å®Ĺ":2236,"åįł":2237,"éĻĨ":2238,"æħ¢":2239,"åĪ¤":2240,"ach":2241,"88":2242,"åı¶":2243,"è¿ĲåĬ¨":2244,"çīĻ":2245,"âĢĵ":2246,"Ġ[":2247,"ä¸įè¦ģ":2248,"çĪĨ":2249,"çķ«":2250,"è¶£":2251,"éĤ£ä¹Ī":2252,"èģ¯":2253,"æ¤į":2254,"åĪ©çĶ¨":2255,"ç¬¬ä¸ī":2256,"çļĦå¤§":2257,"åºĶè¯¥":2258,"æķħäºĭ":2259,"çµ±":2260,"æľīéĻĲ":2261,"éĹ»":2262,"èĤ¯":2263,"èīºæľ¯":2264,"å°ģ":2265,"ä¹ĭä¸Ģ":2266,"2018":2267,"è¶³çĲĥ":2268,"åıĥèĢĥ":2269,"åĨ°":2270,"å¼Ł":2271,"èŃ°":2272,"29":2273,"ount":2274,"å»ºçŃĳ":2275,"Ġne":2276,"erv":2277,"éłŃ":2278,"å§Ĳ":2279,"åģ¥åº·":2280,"åİĤ":2281,"ber":2282,"ock":2283,"æłĳ":2284,"çŁ¥è¯Ĩ":2285,"æ°£":2286,"ç¾İåľĭ":2287,"éĽĦ":2288,"åħ³ç³»":2289,"æĸ°çļĦ":2290,"æĢ¥":2291,"ary":2292,"å»ºç«ĭ":2293,"ress":2294,"ä¿ĿæĬ¤":2295,"èĩªçĦ¶":2296,"æķ£":2297,"åľ£":2298,"å°Ī":2299,"å»¶":2300,"åĢŁ":2301,"æ¾³":2302,"ence":2303,").":2304,"ens":2305,"æįŁ":2306,"ãĢĤãĢĤ":2307,"åºĬ":2308,"å¾ģ":2309,"ä¹³":2310,"ç»¼":2311,"èµ·æĿ¥":2312,"éĽ»å½±":2313,"å°İ":2314,"åĿĲ":2315,"å°ļ":2316,"èĶ":2317,"åĪĺ":2318,"100":2319,"æķĻåŃ¦":2320,"ick":2321,"çļĦä¸Ģä¸ª":2322,"èĢģå¸Ī":2323,"åįĸ":2324,"ç´Ħ":2325,"Ġnew":2326,"éħ¸":2327,"æ¦Ĥ":2328,"):":2329,"Ġso":2330,"ä¼ĳ":2331,"du":2332,"ä¸Ńå¤®":2333,"ç´ļ":2334,"èĻŁ":2335,"å¿ħé¡»":2336,"åľĺ":2337,"äº¤æĺĵ":2338,"å½¢æĪĲ":2339,"èµĦæĸĻ":2340,"ĠY":2341,"ä½Ļ":2342,"è¿Ľåħ¥":2343,"å¥¶":2344,"ä¸Ĭæµ·":2345,"èĻķ":2346,"ç»ĵæŀĦ":2347,"ä¸Ģä¸ĭ":2348,"ous":2349,"éĩĩçĶ¨":2350,"very":2351,"è°¢":2352,"éĸĢ":2353,"éĢĲ":2354,"ode":2355,"è¯į":2356,"å¹¼":2357,"ãĢĤï¼Į":2358,"ä¹¡":2359,"åĶ±":2360,"æķĳ":2361,"ç¯ĩ":2362,"ç§ĺ":2363,"åıªæľī":2364,"éĢłæĪĲ":2365,"éĴŁ":2366,"æ¨£":2367,"é¢¨":2368,"Ġmore":2369,"ä¸°":2370,"ck":2371,"èĮ¶":2372,"éĲ":2373,"å·¡":2374,"é¹":2375,"å±ĭ":2376,"æ±ł":2377,"èĽĭ":2378,"ä»ĭç»į":2379,"2015":2380,"æĽ¸":2381,"è´¨éĩı":2382,"ark":2383,"ä¸įè¿ĩ":2384,"çĶļèĩ³":2385,"åĹ":2386,"ĠÐ":2387,"æļ´":2388,"ç¨³":2389,"åĵģçīĮ":2390,"Ġthey":2391,"self":2392,"2014":2393,"Ċĉĉ":2394,"å®ľ":2395,"åĨ²":2396,"Ġget":2397,"éĴ¢":2398,"è§£åĨ³":2399,"éĽª":2400,"äº§çĶŁ":2401,"çĹĩ":2402,"æĳ©":2403,"çİī":2404,"ä¹±":2405,"å¤ĸéĥ¨":2406,"åĪ¥":2407,"ä¹ĭéĹ´":2408,"å¸ģ":2409,"Ġtheir":2410,"æĪĲåĬŁ":2411,"æĥł":2412,"è¿ª":2413,"åįķä½į":2414,"è®¡åĪĴ":2415,"å¼Ģåıĳ":2416,"ring":2417,"æ··":2418,"å¸¶":2419,"ï¼į":2420,"è¯ī":2421,"ose":2422,"éģĬ":2423,"éģ¿":2424,"ï½ŀ":2425,"ç§ģ":2426,"æ±¡":2427,"åĸľæ¬¢":2428,"è®°èĢħ":2429,"çĸĳ":2430,"IN":2431,"è¿·":2432,"åł±":2433,"app":2434,"ç¸£":2435,"å®¹æĺĵ":2436,"55":2437,"ç¨±":2438,"ations":2439,"åıªæĺ¯":2440,"æĺ¯åĲ¦":2441,"é¡º":2442,"èĻ½çĦ¶":2443,"Ġone":2444,"Ġ4":2445,"éľĢæ±Ĥ":2446,"æ¢ħ":2447,"è·Ŀ":2448,"å§Ĩ":2449,"ru":2450,"è®Ĭ":2451,"éĦ":2452,"ject":2453,"æĸĹ":2454,"çŀ":2455,"fer":2456,"æľīæķĪ":2457,"éĴĪ":2458,"70":2459,"è®¯":2460,"Ġ#":2461,"Ġmy":2462,"ä»Ĭå¤©":2463,"æĸĩçĮ®":2464,"ä¸¤ä¸ª":2465,"å¹ķ":2466,"ĠCh":2467,"éĽħ":2468,"è¡ĮæĶ¿":2469,"ä¹ĭåīį":2470,"æľºæŀĦ":2471,"ents":2472,"éĿ¢ç§¯":2473,"çļĦäºĭ":2474,"æľĹ":2475,"ç»ĵæŀľ":2476,"ç»¿":2477,"99":2478,"ç¦ģ":2479,"å¹³æĸ¹åħ¬éĩĮ":2480,"æĦ¿":2481,"çĳŀ":2482,"ä¼¯":2483,"åĤ³":2484,"te":2485,"è³ĩæĸĻ":2486,"è¬":2487,"ild":2488,"å®ģ":2489,"('":2490,"ä¸įæĸŃ":2491,"ä¸Ģæ¬¡":2492,"æķĪæŀľ":2493,"ä¸Ģæł·":2494,"éĶ®":2495,"åİŁåĽł":2496,"ä¸ĢæŃ¥":2497,"åį±":2498,"è·ĳ":2499,"çī¹åĪ«":2500,"åĬ³":2501,"åīĩ":2502,"ike":2503,"è£½":2504,"ä»¥ä¸Ĭ":2505,"Ġ+":2506,"çĶµåŃĲ":2507,"ä¿ĥ":2508,"è²»":2509,"au":2510,"Ġar":2511,"åħ¨çĲĥ":2512,"æľĢåĲİ":2513,"æ¨¡å¼ı":2514,"In":2515,"ä»·æł¼":2516,"æ±ĩ":2517,"198":2518,"æ¢¦":2519,"äº¤éĢļ":2520,"Ġdef":2521,"ory":2522,"è¿İ":2523,"äº§ä¸ļ":2524,"éĻ¤äºĨ":2525,"éĿĻ":2526,"åĢĴ":2527,"çĿ£":2528,"åı°çģ£":2529,"own":2530,"é¡Į":2531,"æĹ§":2532,"è¡ĵ":2533,"##":2534,"å±Ĭ":2535,"æĵįä½ľ":2536,"æĿĤ":2537,"çĹĽ":2538,"Ġhis":2539,"ov":2540,"åĲ¯":2541,"éĽ¶":2542,"ree":2543,"èªŀ":2544,"å®¶åºŃ":2545,"æĳĦ":2546,"33":2547,"æĻºèĥ½":2548,"ç«ŀ":2549,"å®ļçļĦ":2550,"ä¹Łä¸į":2551,"éĺ¶":2552,"è¦ĭ":2553,"æĪĲäºº":2554,"ç¯Ģ":2555,"ne":2556,"åĲĦç§į":2557,"åģ·":2558,"æ±½è½¦":2559,"åı¥":2560,"äº¦":2561,"å®Įåħ¨":2562,"ç²¾ç¥ŀ":2563,"ition":2564,"æıĲåįĩ":2565,"row":2566,"çĦ¶åĲİ":2567,"è°Ī":2568,"ç¡¬":2569,"å¥³äºº":2570,"Ġabout":2571,"å¼·":2572,"æ¯ķ":2573,"æĢ§çļĦ":2574,"éº½":2575,"å¤ªç©º":2576,"èİ«":2577,"éĺħè¯»":2578,"ical":2579,"ä¸ģ":2580,"æ¹¾":2581,"ä¿Ħ":2582,"çľŁçļĦ":2583,"èĪ¹":2584,"èĥľ":2585,"æıĲåĩº":2586,"é¡ŀ":2587,"2013":2588,"90":2589,"å¾ĹåĪ°":2590,"çįİ":2591,"éº¼":2592,"æŃ£åľ¨":2593,"çļĦå°ı":2594,"ç«Ł":2595,"æ²Ĵæľī":2596,"Ġour":2597,"ç»¼åĲĪ":2598,"Ġman":2599,"æ¶Īè´¹":2600,"ink":2601,"æĿŁ":2602,"ç°":2603,"çĽĽ":2604,"åħ¶å®ŀ":2605,"èªį":2606,"è§īå¾Ĺ":2607,"å¼µ":2608,"æĪĳåĢĳ":2609,"å¯¼èĩ´":2610,"è©±":2611,"æĿ¥è¯´":2612,"Ġqu":2613,"her":2614,"åĪĽæĸ°":2615,"å¹¸":2616,"ft":2617,"è¨ĺ":2618,"å§Ķåĳĺ":2619,"Ġwhich":2620,"æķĻå¸Ī":2621,"èĲ¬":2622,"çĽĳè§Ĩ":2623,"æĺ¯åľ¨":2624,"éĥ¨éĹ¨":2625,"ç¬¦":2626,"å±ŀäºİ":2627,"ple":2628,"è®¿":2629,"èĤ¥":2630,"æĲŃ":2631,"ä»¥ä¸ĭ":2632,"åıĤèĢĥæĸĩçĮ®":2633,"åķı":2634,"(\"":2635,"åĽ°":2636,"Ġsc":2637,"è®¡ç®Ĺ":2638,"èĦ¸":2639,"Ċĉ":2640,"åħ³äºİ":2641,"çŃ¾":2642,"åĨĮ":2643,"Ġun":2644,"ï¼īãĢģ":2645,"è°·":2646,"åıĳå¸ĥ":2647,"çĬ¯":2648,"è§Ģ":2649,"çĥĪ":2650,"ors":2651,"è´µ":2652,"æĸĩç«ł":2653,"ç®±":2654,"!!":2655,"æĲľ":2656,"ps":2657,"36":2658,"Ġper":2659,"ER":2660,"ç¬Ķ":2661,"ays":2662,"åŃ¦éĻ¢":2663,"ç¾©":2664,"ont":2665,"ä¸ĢåĢĭ":2666,"ä¼´":2667,"æİī":2668,"é¡µ":2669,"æİĮ":2670,"ç¤¼":2671,"åĳ¼":2672,"35":2673,"èĲ¨":2674,"Ġdis":2675,"èĭ¦":2676,"åĶĲ":2677,"Ġwork":2678,"è½¯ä»¶":2679,"ç½ª":2680,"åīĤ":2681,"èĦ±":2682,"æĭ¥":2683,"å®¢æĪ·":2684,"æĽ¼":2685,"è¾¾åĪ°":2686,"Ġwho":2687,"å®ŀéĻħ":2688,"ç¿»":2689,"éª¨":2690,"Ġev":2691,"vers":2692,"èĩº":2693,"pro":2694,"æľīéĻĲåħ¬åı¸":2695,"é¡¶":2696,"é²ľ":2697,"ict":2698,"ç§ĭ":2699,"Ð¾":2700,"ä¸ļåĬ¡":2701,"äººçī©":2702,"å»£":2703,"åıĤåĬł":2704,"ä¼łç»Ł":2705,"éł»":2706,"æĿ¨":2707,"é¢ĨåŁŁ":2708,"çĽĸ":2709,"äºĪ":2710,"æľīçļĦ":2711,"éº»":2712,"Ð°":2713,"è¯º":2714,"çĽ®æłĩ":2715,"ä»Ĭå¹´":2716,"éĽ»è¦ĸ":2717,"å±¬":2718,"Ġ&":2719,"æĢķ":2720,"Ġ:":2721,"ove":2722,"èĦļ":2723,"è£Ŀ":2724,"åıĹåĪ°":2725,"æ½®":2726,"éĺ´":2727,"ec":2728,"Ġtime":2729,"Ġ5":2730,"ç¨İ":2731,"æ°´å¹³":2732,"èĻİ":2733,"åŁĥ":2734,"reat":2735,"ç³ĸ":2736,"ĠåŁº":2737,"è¡Įä¸º":2738,"Ġ<":2739,"æĹħæ¸¸":2740,"æĪĲç«ĭ":2741,"éģŃ":2742,"æ±º":2743,"ize":2744,"æ¡¥":2745,"åĺī":2746,"å°¤":2747,"çĶµè§Ĩ":2748,"å¸®åĬ©":2749,"æĮĳ":2750,"ings":2751,"45":2752,"åĪº":2753,"çµ¦":2754,"æĶ¿çŃĸ":2755,"ä¸¹":2756,"ç¶Ń":2757,"è¿ĻéĩĮ":2758,"æľīäºĽ":2759,"ound":2760,"æµª":2761,"é¥°":2762,"ç©ºéĹ´":2763,"sh":2764,"èĿ":2765,"ä¸Ńåľĭ":2766,"èĪī":2767,"æı¡":2768,"èģĶç½ĳ":2769,"å¼Ģå±ķ":2770,"åķĨåĵģ":2771,"éĩĳèŀį":2772,"é¡¾":2773,"å³¶":2774,"åľĴ":2775,"äºĭä»¶":2776,"æľĢæĸ°":2777,"name":2778,"Ġsp":2779,"ev":2780,"äº¡":2781,"çĪ¸":2782,"lo":2783,"çĿ¡":2784,"åİħ":2785,"ely":2786,"æĸ¹æ¡Ī":2787,"ax":2788,"åīµ":2789,"æĹłæ³ķ":2790,"æīįèĥ½":2791,"æģ¶":2792,"æİ¥åıĹ":2793,"ç»©":2794,"çĸ¾":2795,"Ġany":2796,"åĽłçĤº":2797,"çį²":2798,"Ġpre":2799,"çī¹å³°":2800,"è°ģ":2801,"ĠåŁºçī¹å³°":2802,"æ²ī":2803,"èķ":2804,"éĵ¶è¡Į":2805,"2012":2806,"alue":2807,"å®«":2808,"æĿ¡ä»¶":2809,"æ²»çĸĹ":2810,"Ġsa":2811,"Ġå¤ªç©º":2812,"èª¿":2813,"éĢĶ":2814,"Ġå¤ªç©ºçĽĳè§Ĩ":2815,"èĢ³":2816,"å¼¹":2817,"Ġ|":2818,"æ°ı":2819,"197":2820,"è´£ä»»":2821,"ç¾İåħĥ":2822,"æģĲ":2823,"ãĢĭï¼Į":2824,"è®¸å¤ļ":2825,"æĺ¾ç¤º":2826,"è«ĸ":2827,"åĽ½åĨħ":2828,"ä¸ľè¥¿":2829,"æľ«":2830,"æ¶ī":2831,"è½ī":2832,"44":2833,"æŃ£å¼ı":2834,"åıĺåĮĸ":2835,"è¿ħ":2836,"ç»§ç»Ń":2837,"æĬĺ":2838,"åĥ¹":2839,"åģı":2840,"æĮ¥":2841,"æ°§":2842,"åħĴ":2843,"åľĪ":2844,"åºĨ":2845,"é²ģ":2846,"ĊĠĠĠĠĠĠĠĠĠĠĠĠĠĠĠĠĠĠĠĠ":2847,"å½Ĵ":2848,"ä½įç½®":2849,"çĨ±":2850,"ç¥ĸ":2851,"æĿ¯":2852,"ï¼İ":2853,"ä¸įä»ħ":2854,"çĺ":2855,"åĮ»éĻ¢":2856,"æĪ²":2857,"èı²":2858,"éĿ¢çļĦ":2859,"è´Ŀ":2860,"ä»ª":2861,"åŁºéĩĳ":2862,"åħ³æ³¨":2863,"çĶ¨äºİ":2864,"æ¸Ĳ":2865,"åĪĹè¡¨":2866,"åĬª":2867,"è®¨":2868,"æĿ¥æºĲ":2869,"Ġyear":2870,"unction":2871,"éĩĬ":2872,"ish":2873,"è¾ĳ":2874,"è´Łè´£":2875,"ian":2876,"æ»ĳ":2877,"éģĹ":2878,"ä»·åĢ¼":2879,"ç»ıè¿ĩ":2880,"å²¸":2881,"è§¦":2882,"Ġalso":2883,"å·§":2884,"ubl":2885,"å°º":2886,"ç®Ģåįķ":2887,"å¥³æĢ§":2888,"ä¹Łæľī":2889,"åĩºæĿ¥":2890,"éĽĨåĽ¢":2891,"old":2892,"put":2893,"æļĹ":2894,"æĦŁè§ī":2895,"å¯»":2896,"éļĨ":2897,"è¯¢":2898,"æĪĳåĽ½":2899,"æ¢Ŀ":2900,"irst":2901,"å¹ħ":2902,"å¥§":2903,"ä¿ĿæĮģ":2904,"éĺ»":2905,"åĪĨäº«":2906,"æĺł":2907,"æĸ¹åĲĳ":2908,"è³ª":2909,"èĻĳ":2910,"è·³":2911,"å·¥ä¸ļ":2912,"Ġag":2913,"å¢ŀéķ¿":2914,"æľīåħ³":2915,"éļĶ":2916,"éľĩ":2917,"é£İéĻ©":2918,"31":2919,"æĸ°éĹ»":2920,"æĹ¶ä»£":2921,"æī©":2922,"åıªè¦ģ":2923,"è¦ª":2924,"æĥĬ":2925,"çģ¯":2926,"Ġte":2927,"èī¾":2928,"é¬¼":2929,"äºļæ´²":2930,"ON":2931,"éģĭåĭķ":2932,"è¿ĩç¨ĭä¸Ń":2933,"æĢª":2934,"æ³ķå¾ĭ":2935,"æ¨Ļ":2936,"ĠIt":2937,"åĩºçļĦ":2938,"åħ±åĲĮ":2939,"åı¦å¤ĸ":2940,"ä¼°":2941,"éļĽ":2942,"é¥®":2943,"iew":2944,"çĶŁçī©":2945,"èģĬ":2946,"åĸĿ":2947,"æĬ½":2948,"éļıçĿĢ":2949,"è¡¨çİ°":2950,"çº¸":2951,"æª":2952,"ss":2953,"éĤ¦":2954,"è¯¯":2955,"up":2956,"éĲµ":2957,"ç·¨":2958,"Ġwhen":2959,"é»ĺ":2960,"åĿ¦":2961,"é£¾":2962,"æıı":2963,"è§Ĥçľĭ":2964,"å¤§åŃ¸":2965,"é¸¡":2966,"====":2967,"ç»ĵåĲĪ":2968,"åĨ³å®ļ":2969,"åĨ¬":2970,"æĨ":2971,"æĪĲæľ¬":2972,"æľĢé«ĺ":2973,"ool":2974,"Ġpart":2975,"åĩºäºĨ":2976,"%ï¼Į":2977,"tr":2978,"66":2979,"oy":2980,"éŀ":2981,"å¹¶ä¸Ķ":2982,"gr":2983,"å©Ĩ":2984,"âĨ":2985,"åĦª":2986,"æĹĹ":2987,"ĠâĢĵ":2988,"æĴŃæĶ¾":2989,"ä¾§":2990,"è´´":2991,"ull":2992,"åĿı":2993,"åĬłåħ¥":2994,"æĢĢ":2995,"æĬĵ":2996,"ä¸įåı¯":2997,"çĭĤ":2998,"Ġsome":2999,"æĶ¹éĿ©":3000,"****":3001,"we":3002,"åĩĢ":3003,"å½¢å¼ı":3004,"å°¾":3005,"èĨľ":3006,"æĵĬ":3007,"ix":3008,"çĽ®çļĦ":3009,"åŃĶ":3010,"Ġother":3011,"ä½įæĸ¼":3012,"å°ıæĹ¶":3013,"mer":3014,"äººä»¬":3015,"çºĮ":3016,"é¢Ĩå¯¼":3017,"åį·":3018,"å®ĩ":3019,"ï¼Īï¼īï¼Į":3020,"Ġthem":3021,"åĤ¨":3022,"åªĴä½ĵ":3023,"ãĢįï¼Į":3024,"37":3025,"æĽ´åĬł":3026,"æĹ¢":3027,"èĩªçĶ±":3028,"æ¥ļ":3029,"éĢŁåº¦":3030,"éĩıçļĦ":3031,"è¶ħè¿ĩ":3032,"æķı":3033,"Ġover":3034,"ä½ľèĢħ":3035,"pon":3036,"èĥ¡":3037,"è¼ĥ":3038,"åİļ":3039,"æŃ²":3040,"éłĺ":3041,"nder":3042,"UT":3043,"2011":3044,"çĶµè¯Ŀ":3045,"èĴĤ":3046,"äº¤æµģ":3047,"åħ³éĶ®":3048,"çĭĹ":3049,"å·¦åı³":3050,"æ£ĢæŁ¥":3051,"SE":3052,"éĤĬ":3053,"ä¹ĺ":3054,"èĵĿ":3055,"éŁ©åĽ½":3056,"æİª":3057,"çĽ´æĴŃ":3058,"èĮĥåĽ´":3059,"ä¸Ģç§į":3060,"tern":3061,"è±Ĩ":3062,"Ġbeen":3063,"éĤ®":3064,"æŃ·":3065,"å»ºè®®":3066,"38":3067,"è¿ĳåľ°":3068,"æĤ£èĢħ":3069,"ST":3070,"çļĦè¯Ŀ":3071,"clud":3072,"çħ§çīĩ":3073,"è«ĭ":3074,"éĥ½æľī":3075,"Ġ.":3076,"ç£ģ":3077,"Ġthere":3078,"æ¡ĥ":3079,"éĺµ":3080,"é»ĥ":3081,"çĥŁ":3082,"åºĦ":3083,"éĸĭå§ĭ":3084,"ï¼ŁâĢĿ":3085,"å¼±":3086,"åĪ¶åº¦":3087,"æĻĤéĸĵ":3088,"ä¼ļè®®":3089,"ä¸įåĲĮçļĦ":3090,"å®ĺæĸ¹":3091,"å¿«éĢŁ":3092,"æľªæĿ¥":3093,"è¾¦":3094,"å¸ķ":3095,"åıĤä¸İ":3096,"Ġro":3097,"low":3098,"ç´Ģ":3099,"æĺ¯ä¸Ģä¸ª":3100,"ç§Ł":3101,"è§Ħå®ļ":3102,"é«ĺåº¦":3103,"é¡¿":3104,"48":3105,"Ġkn":3106,"ng":3107,"tt":3108,"è®¢":3109,"aw":3110,"ç¼©":3111,"çĩĥ":3112,"å£¤":3113,"èĩªåĬ¨":3114,"éĩįçĤ¹":3115,"ç´¯":3116,"å°±ä¼ļ":3117,"AT":3118,"äºķ":3119,"çķª":3120,"pec":3121,"ç½²":3122,"ä¸»ä¹ī":3123,"atch":3124,"éĽ¢":3125,"è¯Ĺ":3126,"åĪĢ":3127,"è©¦":3128,"çĶ·äºº":3129,"çĶ¨çļĦ":3130,"åĩĨå¤ĩ":3131,"éŃļ":3132,"ä»ĸåĢĳ":3133,"èĹĿ":3134,"ï¼ģâĢĿ":3135,"éħĴåºĹ":3136,"éİ":3137,"eth":3138,"Ġhad":3139,"ual":3140,"Ġoff":3141,"éĺ¶æ®µ":3142,"æŃ£å¸¸":3143,"anc":3144,"Ġlike":3145,"èıĮ":3146,"æ²¿":3147,"çİ°åľº":3148,"\"\"":3149,"é¥Ń":3150,"2010":3151,"èįĲ":3152,"èģĮä¸ļ":3153,"è±ª":3154,"è¯¦":3155,"ä¸įåĪ°":3156,"åıĥèĢĥè³ĩæĸĻ":3157,"è¿ĳåľ°å°ıè¡ĮæĺŁ":3158,"é¤¨":3159,"æ¯Ķå¦Ĥ":3160,"Ġ$":3161,"èº«ä½ĵ":3162,"äºĴèģĶç½ĳ":3163,"Ġcol":3164,"ä¸ĭçļĦ":3165,"åı°æ¹¾":3166,"Ġwere":3167,"æĭĶ":3168,"ï¼ı":3169,"éŁ³ä¹Ĳ":3170,"ption":3171,"åĶ¯":3172,"åĪ¶éĢł":3173,"Th":3174,"æľĢè¿ĳ":3175,"æĮģç»Ń":3176,"ä¸Ńåįİ":3177,"éĨĴ":3178,"éĢļå¸¸":3179,"åħ¨éĿ¢":3180,"èĴĻå±±":3181,"ä¿Ŀè¯ģ":3182,"ĊĊĠĠĠĠĠĠĠ":3183,"è¨±":3184,"è¾Ĩ":3185,"ä»Ļ":3186,"01":3187,"))":3188,"77":3189,"èį£":3190,"Ġher":3191,"èļ":3192,"Ġ6":3193,"Ġpe":3194,"é½Ĳ":3195,"æ¬²":3196,"ç¨ĭåºı":3197,"arg":3198,"çĤİ":3199,"Ġfe":3200,"èĢĲ":3201,"ise":3202,"èĥŀ":3203,"ç¨ĭåº¦":3204,"æ·¡":3205,"ç§¯æŀģ":3206,"æ¬Ĭ":3207,"è£ģ":3208,"åĤĻ":3209,"åł¡":3210,"æĮīçħ§":3211,"æľĢä½³":3212,"sc":3213,"ä¸įå¾Ĺ":3214,"åĢį":3215,"åľĨ":3216,"éĵ¾æİ¥":3217,"åħ¨éĥ¨":3218,"AR":3219,"å¿ĥçĲĨ":3220,"å¨ĺ":3221,"å¦ĤæŃ¤":3222,"pect":3223,"åıĸå¾Ĺ":3224,"é»¨":3225,"åĪĨéĴŁ":3226,"ater":3227,"èģĶç³»":3228,"Ġwould":3229,"rib":3230,"Ġwhat":3231,"iss":3232,"enc":3233,"Ġ//":3234,"key":3235,"å¹´ä»£":3236,"set":3237,"éķľ":3238,"è¦º":3239,"èģ²":3240,"éĮĦ":3241,"sp":3242,"éļĲ":3243,"æľŁéĹ´":3244,"æĽ¿":3245,"çĶŁçļĦ":3246,"å±ı":3247,"æ¯ĶèµĽ":3248,"lect":3249,"æĪĳä»¬çļĦ":3250,"è¦ĸéł»":3251,"æķ°éĩı":3252,"éĨ«":3253,"èİī":3254,"ade":3255,"æĿ¥èĩª":3256,"è¿Ľä¸ĢæŃ¥":3257,"åħ¼":3258,"igh":3259,"Ġthan":3260,"æ³¡":3261,"rit":3262,"éĶĭ":3263,"è¿Ŀ":3264,"ä»»åĬ¡":3265,"ange":3266,"å¯º":3267,"å¾Ħ":3268,"çĩŁ":3269,"æİ¨èįĲ":3270,"å¡ĳ":3271,"æķ´ä¸ª":3272,"éĻįä½İ":3273,"æĵļ":3274,"io":3275,"Ġ10":3276,"å¨ľ":3277,"Ġ20":3278,"å®ŀæĸ½":3279,"å¤§åĪ©":3280,"æ³½":3281,"æ¢ģ":3282,"Ġpr":3283,"Ġ19":3284,"èĢ¶":3285,"Ġdes":3286,"æ³Ľ":3287,"è¯¾ç¨ĭ":3288,"ä¾µ":3289,"ç±į":3290,"åĪ¸":3291,"çľŁæŃ£":3292,"é¾į":3293,"ä½ĵç³»":3294,"å¼ķèµ·":3295,"å°ıç»Ħ":3296,"æĥ³è¦ģ":3297,"æľĢç»Ī":3298,"åŁ¹è®Ń":3299,"åĬłå¼º":3300,"çĶŁåĳ½":3301,"èī²çļĦ":3302,"æĬ¥åĳĬ":3303,"ĠWe":3304,"çº¯":3305,"å°ĳå¥³":3306,"åħ±åĴĮ":3307,"éłħ":3308,"å®ŀéªĮ":3309,"èŃ·":3310,"ç¼ĵ":3311,"æ¢°":3312,"ä¸»ä»»":3313,"wo":3314,"ä¸¥éĩį":3315,"ç»ıèĲ¥":3316,"çĦ¶èĢĮ":3317,"æħ§":3318,"Ġjust":3319,"ç´ħ":3320,"è´¥":3321,"æł¸å¿ĥ":3322,"æ´¥":3323,"æľĢå¤§":3324,"LE":3325,"Ġadd":3326,"æľīäºº":3327,"éĢ¼":3328,"åŃķ":3329,"éĢ£çµĲ":3330,"æĪĲçĤº":3331,"aram":3332,"oint":3333,"è¡ĮçļĦ":3334,"ä¸įå°ĳ":3335,"ates":3336,"ä¸ĵå®¶":3337,"è©ķ":3338,"éĶĢåĶ®":3339,"åħ·ä½ĵ":3340,"æĪª":3341,"2019":3342,"è£¸":3343,"Ġneed":3344,"æĭ¥æľī":3345,"çĶ³è¯·":3346,"ä½ĵéªĮ":3347,"39":3348,"iel":3349,"å°Ĭ":3350,"çİ°ä»£":3351,"åİĭåĬĽ":3352,"hed":3353,"çļĦéĹ®é¢ĺ":3354,"ph":3355,"é¼ĵ":3356,"èĲĬ":3357,"èĢĥè¯ķ":3358,"åĿĽ":3359,"èµĦéĩĳ":3360,"èµĮ":3361,"æ¡£":3362,"ror":3363,"éĬĢ":3364,"ãĢįãĢĤ":3365,"èĪĴ":3366,"åĬªåĬĽ":3367,"åĳĪ":3368,"Ġinto":3369,"åĪ¶ä½ľ":3370,"ä»ģ":3371,"çĬ¶æĢģ":3372,"Ð¾Ð":3373,"://":3374,"æ³ī":3375,"è¿Ļä¹Ī":3376,"è¡¡":3377,"ç«¹":3378,"ning":3379,"cre":3380,"ç»ıéªĮ":3381,"çĥ§":3382,"æĹĭ":3383,"éĵģè·¯":3384,"32":3385,"Ġno":3386,"ä¸įçŁ¥éģĵ":3387,"åĽłç´ł":3388,"å¥¹çļĦ":3389,"åĮĸçļĦ":3390,"èį·":3391,"ient":3392,"çıł":3393,"æ´ŀ":3394,"èĻļ":3395,"Ġï¼Ī":3396,"ç©į":3397,"æĸĩä»¶":3398,"éĤ£äºĽ":3399,"é¢ľ":3400,"å®½":3401,"åĪ·":3402,"fter":3403,"éģ¿åħį":3404,"round":3405,"åºŁ":3406,"å¼Ĺ":3407,"èģĶåĲĪ":3408,"èģ·":3409,"è¨Ĭ":3410,"æļĸ":3411,"åŁ¹åħ»":3412,"æĻ®éĢļ":3413,"æ¯ıå¤©":3414,"Ġel":3415,"æŃ¤å¤ĸ":3416,"æĹģ":3417,"åľ°åĿĢ":3418,"åı¦ä¸Ģ":3419,"éĽĻ":3420,"Ġass":3421,"çĴ°":3422,"å¤ļçļĦ":3423,"è·¨":3424,"æĪ´":3425,"ople":3426,"æ¶¦":3427,"æ²ĥ":3428,"æĢ§èĥ½":3429,"les":3430,"è§ĦåĪĴ":3431,"~~":3432,"âĹ":3433,"åĲĽ":3434,"import":3435,"æ¥µ":3436,"çļĦæĸ°":3437,"å½±éĻ¢":3438,"è²ł":3439,"æ´ģ":3440,"èĦĤ":3441,"odel":3442,"ãĢĤâĢľ":3443,"å¥Ī":3444,"è¹":3445,"ĠĠĠĠĠ":3446,"34":3447,"æĭŁ":3448,"åĩıå°ĳ":3449,"æ¹¿":3450,"å®¿":3451,"çªĹ":3452,"åĲİçļĦ":3453,"èĭ±åĽ½":3454,"åįģåĪĨ":3455,"vel":3456,"æ¯«":3457,"åı¯æĺ¯":3458,"æľ±":3459,"çľ¾":3460,"åŃĲçļĦ":3461,"æ¶¨":3462,"å®īè£ħ":3463,"å¯Ĩåº¦":3464,"ublic":3465,"ä¾ĭå¦Ĥ":3466,"çľĭçľĭ":3467,"åļ":3468,"è°ĥæŁ¥":3469,"é¦ĸåħĪ":3470,"è¿Ļæł·çļĦ":3471,"å½ĵæĹ¶":3472,"ä¿ĿéĻ©":3473,"è¶ĬæĿ¥":3474,"èĢĥèĻĳ":3475,"æľºä¼ļ":3476,"éŁĵ":3477,"Ġam":3478,"åĮºåŁŁ":3479,"åĢ«":3480,"Ġset":3481,"ç¾Ĭ":3482,"Ġcomm":3483,"å®ĭ":3484,"èĳ£":3485,"çĸ¾çĹħ":3486,"Ġind":3487,"éģį":3488,"æ£Ĵ":3489,"è¦ı":3490,"é³":3491,"è¶ĬæĿ¥è¶Ĭ":3492,"Ġuse":3493,"æĸ½å·¥":3494,"æ»¿":3495,"åįļå½©":3496,"æĩĤ":3497,"Ġrec":3498,"Ġsaid":3499,"éĢ²è¡Į":3500,"èī²æĥħ":3501,"åĲ´":3502,"Ġmay":3503,"02":3504,"åĭĩ":3505,"Ġacc":3506,"é£Łåĵģ":3507,"Ġapp":3508,"éĥİ":3509,"ä¼Ļ":3510,"åįĶ":3511,"75":3512,"ä¹¦è®°":3513,"å¹¾":3514,"åĩºçīĪ":3515,"ä½ĵèĤ²":3516,"åħĪçĶŁ":3517,"åĪĳ":3518,"%ãĢĤ":3519,"åĩĿ":3520,"æı´":3521,"åıªèĥ½":3522,"æģĭ":3523,"çĲĨè®º":3524,"ä¸Ńæĸĩ":3525,"Ġrequ":3526,"éļ¨":3527,"ash":3528,"è¦Ĩ":3529,"åĵªäºĽ":3530,"è¿ĩåİ»":3531,"æºĸ":3532,"åıĬæĹ¶":3533,"æī§è¡Į":3534,"å¤§åħ¨":3535,"åĪĨåĪ«":3536,"âĢĺ":3537,"Ġfirst":3538,"åľĭå®¶":3539,"Ġits":3540,"ç´į":3541,"äººä½ĵ":3542,"åı¬":3543,"ä¸Ģå¹´":3544,"ä¸ĭæĿ¥":3545,"çĲĨè§£":3546,"cess":3547,"é§":3548,"éĴĪå¯¹":3549,"æĢĿæĥ³":3550,"ific":3551,"åģ¶":3552,"æĿľ":3553,"èħĲ":3554,"æ¸©åº¦":3555,"ener":3556,"è§Ī":3557,"æ®Ĭ":3558,"ç¹ģ":3559,"è§Ĵèī²":3560,"æĭľ":3561,"Ġi":3562,"ç£¨":3563,"æķĻæİĪ":3564,"éĩįè¦ģçļĦ":3565,"å·¡å¤©":3566,"è²¸":3567,"å§Ķåĳĺä¼ļ":3568,"çģ°":3569,"èĥ¶":3570,"è²¬":3571,"å½ĵçĦ¶":3572,"è§Ħæ¨¡":3573,"å®Įæķ´":3574,"å¢¨":3575,"æĿ°":3576,"å¿Ļ":3577,"çĵľ":3578,"Ch":3579,"ç¼ĸçłģ":3580,"éĥ½ä¼ļ":3581,"éģĬæĪ²":3582,"IC":3583,"æĬµ":3584,"å¤ļå°ĳ":3585,"å¿ĺ":3586,"æĮ¯":3587,"æį·":3588,"åĩ¡":3589,"ä¿Ŀéļľ":3590,"æ¦ľ":3591,"Ġimport":3592,"è°ĥæķ´":3593,"Ġhow":3594,"Ġbu":3595,"è¿Ĳè¡Į":3596,"Ġ@":3597,"æ³¨åĨĮ":3598,"è´¸":3599,"å¹¶ä¸į":3600,"å¨±ä¹ĲåŁİ":3601,"èĭĹ":3602,"å¾Ĳ":3603,"é©¾":3604,"å·¥åħ·":3605,"å°¤åħ¶":3606,"æīİ":3607,"å§ĵ":3608,"å£ģ":3609,"è·µ":3610,"è¯´æĺİ":3611,"ä¸ĸçºª":3612,"åĬ±":3613,"65":3614,"ĠThis":3615,"èħ¿":3616,"ox":3617,"åĲĮåŃ¦":3618,"ĠHe":3619,"èĤĮ":3620,"Ġconst":3621,"ï¼Īï¼Į":3622,"å¤ĸéĥ¨éĢ£çµĲ":3623,"çº·":3624,"éĢĥ":3625,"èĢħçļĦ":3626,"Ġhel":3627,"æ¯ķä¸ļ":3628,"åĴĸ":3629,"ç¼ĺ":3630,"ood":3631,"æĺİæĺ¾":3632,"æ³¥":3633,"ms":3634,"ield":3635,"æķ°åŃĹ":3636,"æĶ¶åħ¥":3637,"yst":3638,"åīĳ":3639,"ç´«":3640,"çī¹çĤ¹":3641,"æĥ¯":3642,"éĻ³":3643,"ä¸»é¢ĺ":3644,"ç¦ıåĪ©":3645,"å¹»":3646,"ek":3647,"Ġem":3648,"åĿ¡":3649,"èĥ¸":3650,"çĦ¦":3651,"è¼ī":3652,"åĢº":3653,"é«ĺçļĦ":3654,"èĥİ":3655,"],":3656,"èģĸ":3657,"æĬ¥éģĵ":3658,"day":3659,"è¯Ńè¨Ģ":3660,"çµĤ":3661,"ç»ĦæĪĲ":3662,"èŃī":3663,"åķ¦":3664,"éĹŃ":3665,"çĶľ":3666,"åį¢":3667,"è³¼":3668,"å¢Ļ":3669,"èµı":3670,"2009":3671,"ious":3672,"itt":3673,"çļĦé«ĺ":3674,"æĺ¯ä¸Ģç§į":3675,"éŁ³æ¨Ĥ":3676,"è¿Ķ":3677,")ï¼Į":3678,"è¤":3679,"æĻ¶":3680,"ä¼¸":3681,"ä¸ªæľĪ":3682,"Ġprov":3683,"è·Į":3684,"ĊĠĠĠĠĠĠĠĠĠĠĠĠĠĠĠĠĠĠĠ":3685,"éĻĦè¿ĳ":3686,"æ¶Īæģ¯":3687,"red":3688,"ç¿Ĵ":3689,"Ġbl":3690,"æ½ľ":3691,"åĬĽéĩı":3692,"çĶŁæĢģ":3693,"ä¼ĺåĬ¿":3694,"----------------":3695,"IT":3696,"èĢĹ":3697,"mm":3698,"äº¿åħĥ":3699,"Ġonly":3700,"å½ĵåľ°":3701,"ä½łä»¬":3702,"æľįåĭĻ":3703,"ä»İèĢĮ":3704,"å®ĥçļĦ":3705,"AN":3706,"Ġpeople":3707,"':":3708,"ug":3709,"æĶ¹åıĺ":3710,"åıĤè§ģ":3711,"ä¹Į":3712,"åĬĽçļĦ":3713,"æĹ¶æľŁ":3714,"Ġ/>":3715,"ause":3716,"å¯¶":3717,"oss":3718,"Ġinter":3719,"äººæīį":3720,"ç¡®å®ļ":3721,"æĮĩåĩº":3722,"éĻ¸":3723,"Ġ8":3724,"è®¾ç½®":3725,"çĽ¸ä¿¡":3726,"éĢĻåĢĭ":3727,"åħĦ":3728,"éĩįæĸ°":3729,"78":3730,"åŃĻ":3731,"æĬ±":3732,"ys":3733,"åĮĹéĥ¨":3734,"æİªæĸ½":3735,"çĸ«":3736,"å°±åı¯ä»¥":3737,"è´·":3738,"ä¸ĢçĤ¹":3739,"è´«":3740,"åķĨä¸ļ":3741,"åķª":3742,"åħ¬åħ±":3743,"eg":3744,"Ðµ":3745,"ä¸ĩåħĥ":3746,"æĦıè¯Ĩ":3747,"ank":3748,"èµĦäº§":3749,"Ġmake":3750,"64":3751,"åĽ¢éĺŁ":3752,"åĬŀåħ¬":3753,"ç¬¬åĽĽ":3754,"è¨Ńè¨Ī":3755,"ãĢĭï¼Ī":3756,"æķ¢":3757,"æĤī":3758,"ãĢĭãĢģ":3759,"çĪ¶æ¯į":3760,"Ġ9":3761,"ç§»åĬ¨":3762,"der":3763,"èĪĪ":3764,"çľģä»½":3765,"();":3766,"èµµ":3767,"å¸¦æĿ¥":3768,"å®ħ":3769,"å®¶éķ¿":3770,"æŃ¡":3771,"æ£Ģæµĭ":3772,"'t":3773,"å¥³åŃĲ":3774,"åį»":3775,"Ġvar":3776,"æī¾åĪ°":3777,"å¥³åŃ©":3778,"ner":3779,"åį°åº¦":3780,"è¿«":3781,"ments":3782,"æ·»":3783,"æ°ĳæĹı":3784,"è¼¯":3785,"å¤§å¤ļ":3786,"èĤ¤":3787,"Ġap":3788,"èµ«":3789,"çĶ·åŃĲ":3790,"å±ħæ°ĳ":3791,"ä¿ĥè¿Ľ":3792,"çĤ¸":3793,"åĦ¿ç«¥":3794,"åħħåĪĨ":3795,"åĿļæĮģ":3796,"åĲįçļĦ":3797,"æĲŀ":3798,"å¾·åĽ½":3799,"ices":3800,"ï¼ļãĢĮ":3801,"çļĦéĩįè¦ģ":3802,"çŁ¿":3803,"')":3804,"rough":3805,"éŀĭ":3806,"als":3807,"æ§ĭ":3808,"ä»Ķ":3809,"éłĲ":3810,"æĪĲäºĨ":3811,"æł·çļĦ":3812,"ĠUn":3813,"æ¬£":3814,"man":3815,"è¢ľ":3816,"é¢Ĺ":3817,"å¹³åĿĩ":3818,"éĻ·":3819,"RE":3820,"é£Łçī©":3821,"Ġact":3822,"äºĮåįģ":3823,"ç¤¾åĮº":3824,"è²·":3825,"line":3826,"äºĭæĥħ":3827,"èĢĮæĺ¯":3828,"ç¨³å®ļ":3829,"å¿į":3830,"ä¸°å¯Į":3831,"min":3832,"æµĭè¯ķ":3833,"åĺ´":3834,"å®¾":3835,"åıįåºĶ":3836,"49":3837,"ç¬¬åįģ":3838,"ty":3839,"Ġback":3840,"éķ¿æľŁ":3841,"Ġunder":3842,"æ²Ł":3843,"æ»¡è¶³":3844,"ä»¥åĲİ":3845,"çıį":3846,"é£Ľ":3847,"è¢ĭ":3848,"nc":3849,"ĠPro":3850,"son":3851,"pr":3852,"åĨįæ¬¡":3853,"éĽ£":3854,"Ġshe":3855,"èµ¢":3856,"åĳĬè¯ī":3857,"éĢĤåĲĪ":3858,"çļĦæĥħåĨµ":3859,"ics":3860,"ç½Ĺæĸ¯":3861,"69":3862,"è£Ĥ":3863,"æĸ¹ä¾¿":3864,"æĮĤ":3865,"ä¸ºä»Ģä¹Ī":3866,"æİ¨è¿Ľ":3867,"éŃĤ":3868,"ä¸»å¸Ń":3869,"é©¶":3870,"Ġbet":3871,"éĿĴå¹´":3872,"è´¦":3873,"ik":3874,"å¯Ĵ":3875,"æī¬":3876,"orld":3877,"æµ®":3878,"çī¹èī²":3879,"over":3880,"çļĦåľ°æĸ¹":3881,"å¼ĢæĶ¾":3882,"ating":3883,"âĳ":3884,"ä¸Ĭå¸Ĥ":3885,"åľĭéļĽ":3886,"åĪĬ":3887,"è¡ĮåĬ¨":3888,"Ġ7":3889,"è®Ģ":3890,"æĪĺçķ¥":3891,"ç²Ĵ":3892,"ä»¥æĿ¥":3893,"è½¨":3894,"åĸ·":3895,"eng":3896,"Ġinclud":3897,"å®ŀè·µ":3898,"ç°¡":3899,"æµĵ":3900,"éº¦":3901,"æĪĲç»©":3902,"å®īæİĴ":3903,"èĬĤçĽ®":3904,"æŁĶ":3905,"çĵ¶":3906,"æĮĩå¯¼":3907,"ee":3908,"åŀĭçļĦ":3909,"è´Ńä¹°":3910,"Ġint":3911,"é»İ":3912,"æ±¡æŁĵ":3913,"âĸ":3914,"195":3915,"ful":3916,"è¸ª":3917,"åĬŀæ³ķ":3918,"æŃĲ":3919,"æ¯ıä¸ª":3920,"è¶ĭ":3921,"ä½©":3922,"ä»ĸä»¬çļĦ":3923,"UTC":3924,"arch":3925,"ä¹Łåı¯ä»¥":3926,"çģ¾":3927,"ĠCom":3928,"::":3929,"åģļå¥½":3930,"Ñģ":3931,"68":3932,"ç§Ĵ":3933,"ĠçļĦ":3934,"ç«ŀäºī":3935,"èĪį":3936,"Ġknow":3937,"å¡«":3938,"æĵĶ":3939,"æºª":3940,"åĮ»çĸĹ":3941,"bs":3942,"é©Ĺ":3943,"è¯Ĭ":3944,"è¼ķ":3945,"éī":3946,"let":3947,"ä¹ĭå¾Į":3948,"çĶĺ":3949,"å½±çīĩ":3950,"è¿ĲèĲ¥":3951,"ities":3952,"air":3953,"æ¬§æ´²":3954,"æĦıä¹ī":3955,"è¾Ľ":3956,"åľ°çĲĨ":3957,"ource":3958,"Ġfunction":3959,"AP":3960,"ational":3961,"bl":3962,"å²©":3963,"éĭ":3964,"ough":3965,"å¾Ĵ":3966,"ç§¦":3967,"è®¤è¯Ĩ":3968,"ç¬¦åĲĪ":3969,"çĪŃ":3970,"å®¶çļĦ":3971,"its":3972,"ystem":3973,"èĩªæĭį":3974,"çľģå¸Ĥéķĩ":3975,"æł¹æľ¬":3976,"oth":3977,"å¿Ĩ":3978,"æ¿Ģæĥħ":3979,"ied":3980,"çªģçĦ¶":3981,"çļĦåıĳå±ķ":3982,"å®£å¸ĥ":3983,"ä»Ģéº½":3984,"å¹´è½»":3985,"èĪªç©º":3986,"å¼ĥ":3987,"ç¼ĸçłģä¸º":3988,"az":3989,"Ġdata":3990,"æĶ¯ä»ĺ":3991,"æ¼«çĶ»":3992,"Ġop":3993,"ç©ºæ°Ķ":3994,"è¯ļ":3995,"å°¿":3996,"ç»ķ":3997,"çī¹æ®Ĭ":3998,"éİ®":3999,"èĥĮæĻ¯":4000,"2001":4001,"500":4002,"ars":4003,"EN":4004,"ä¼Ł":4005,"Ġnum":4006,"read":4007,"åĲĪçĲĨ":4008,"å¾ª":4009,"Ġgr":4010,"Ġmost":4011,"Ð¸":4012,"åĮºä¸º":4013,"èħ¾":4014,"å±¤":4015,"ID":4016,"ãĢİ":4017,"åĨħçļĦ":4018,"æĺĮ":4019,"æİ¨åĬ¨":4020,"æ³ķéĻ¢":4021,"ife":4022,"ä¼į":4023,"ç»ıå¸¸":4024,"Ġatt":4025,"fig":4026,"2000":4027,"éģĵè·¯":4028,"æ±¤":4029,"æľ¬èº«":4030,"èĩªèº«":4031,"å®ĥä»¬":4032,"ç¾½":4033,"è®ºåĿĽ":4034,"åĩłä¸ª":4035,"Ġhelp":4036,"ä¿Ĥ":4037,"å¤§éĩı":4038,"Ġprodu":4039,"çŃīçŃī":4040,"åķ¡":4041,"æĹ¦":4042,"å®£ä¼ł":4043,"æģ¢":4044,"æ¶Ĥ":4045,"å°ĳå¹´":4046,"Ġlook":4047,"æĻ¨":4048,"éĤĢ":4049,"æĻĵ":4050,"ä¹Łä¼ļ":4051,"å¤ªéĺ³":4052,"äººå£«":4053,"riv":4054,"ä¸īä¸ª":4055,"èĸĦ":4056,"æ¤įçī©":4057,"ä»¥åīį":4058,"èµŀ":4059,"ues":4060,"å·¥èīº":4061,"heck":4062,"Ġph":4063,"èĥ½æºĲ":4064,"ãĢı":4065,"çīĪæľ¬":4066,"07":4067,"æĪ¶":4068,"è½´":4069,"ä¸Ģå®ļè¦ģ":4070,"Ġthrough":4071,"äººç±»":4072,"æ¸¬":4073,"èĭ±è¯Ń":4074,"æķĪçİĩ":4075,"æģĴ":4076,"åĬłå·¥":4077,"è»Ĭç«Ļ":4078,"Ġreg":4079,"éĽĨä¸Ń":4080,"ons":4081,"éŁ¿":4082,"ames":4083,"Ġstr":4084,"ĠãĢĬ":4085,"Ġåľ¨":4086,"åīįå¾Ģ":4087,"æľºæ¢°":4088,"ä¿Ĺ":4089,"åķıé¡Į":4090,"Ġtwo":4091,"Ġshould":4092,"èµ¤":4093,"ä¹¾":4094,"éĤ£ä¸ª":4095,"çĽĲ":4096,"ä¸ĭéĿ¢":4097,"åĴĸåķ¡":4098,"Ġevery":4099,"çį¨":4100,"ç¬¬ä¸Ģæ¬¡":4101,"çļĦä¸Ģä¸ªå¸Ĥéķĩ":4102,"ower":4103,"æ´»åĭķ":4104,"èĺĩ":4105,"çĽ¸å¯¹":4106,"æ®º":4107,"æ®ĸ":4108,"å¹´åº¦":4109,"str":4110,"è·Ŀç¦»":4111,"Ġwant":4112,"Ġserv":4113,"çļĦå·¥ä½ľ":4114,"æľºåĻ¨":4115,"æ´ª":4116,"ily":4117,"åĬ¨æ¼«":4118,"2008":4119,"OR":4120,"ward":4121,"æķ¦":4122,"å¯«":4123,"æİĮæı¡":4124,"htt":4125,"åĩ¯":4126,"add":4127,"çĤ®":4128,"è¡Ľ":4129,"ĠYou":4130,"å½±éŁ³":4131,"è§ĦèĮĥ":4132,"åįĹéĥ¨":4133,"æľĢå¤§çļĦ":4134,"éĻ½":4135,"ĠĠĠĠĠĠĠĠĠĠĠĠĠĠĠĠ":4136,"çľŁå®ŀ":4137,"åĮ¹":4138,"ures":4139,"æī£":4140,"çİ»":4141,"æŃ£ç¡®":4142,"è¿ŀæİ¥":4143,"é¨":4144,"åĬ¨æĢģ":4145,"å¹´æĿ¥":4146,"._":4147,"ĠAr":4148,"\":":4149,"def":4150,"urre":4151,"çİ°è±¡":4152,"éĥ½ä¸į":4153,"è¡¨éĿ¢":4154,"åĪĽä¸ļ":4155,"æº«":4156,"æįķ":4157,"èĳ¡":4158,"æķ´ä½ĵ":4159,"å½¹":4160,"ç¶²ç«Ļ":4161,"type":4162,"æĽ´æĸ°":4163,"æī«":4164,"ç³»çµ±":4165,"çļĦæĸ¹å¼ı":4166,"Ġfin":4167,"çĭ¬ç«ĭ":4168,"æ®ĭ":4169,"å°ĺ":4170,"éĩĮçļĦ":4171,"åĪĽéĢł":4172,"enter":4173,"è®Ńç»ĥ":4174,"è¾ħ":4175,"æİ¨åĩº":4176,"æŃ»äº¡":4177,"æī¶":4178,"è°ĵ":4179,"Ġ==":4180,"æ¼ı":4181,"çĴĥ":4182,"ç»ĵæĿŁ":4183,"ĠæŀĹ":4184,"è¯Ħä»·":4185,"ĠTr":4186,"\")":4187,"ç§°ä¸º":4188,"IS":4189,"Ġthese":4190,"çİ©å®¶":4191,"ä¹łæĥ¯":4192,"åĪĨå¸ĥ":4193,"olog":4194,"Ġrel":4195,"æķ¬":4196,"æµĻ":4197,"æĳ¸":4198,"éªĳ":4199,"ãĢĤãĢį":4200,"æīĵéĢł":4201,"æĬ¢":4202,"Ġstart":4203,"é¾Ħ":4204,"èĻ«":4205,"æħ°":4206,"Ġwell":4207,"è¯ĳ":4208,"èľľ":4209,"wn":4210,"æ¿Ł":4211,"é©±":4212,"æĺİç¡®":4213,"ense":4214,"åĬłä¸Ĭ":4215,"ible":4216,"ery":4217,"ç»Ĩèĥŀ":4218,"ç¢º":4219,"ract":4220,"çļĦä¸»":4221,"æħĭ":4222,"yle":4223,"å¥¸":4224,"ä¸ĭåįĪ":4225,"è½¦ç«Ļ":4226,"æ¡Į":4227,"ç½ĳåĿĢ":4228,"å¹¼åĦ¿":4229,"åĳĺå·¥":4230,"å¿ħè¦ģ":4231,"åĿĳ":4232,"åĲ¸å¼ķ":4233,"çµ²":4234,"çī©è´¨":4235,"å¿ł":4236,"Ñĸ":4237,"èµ¶":4238,"çĮ«":4239,"çĤ¼":4240,"çĻ¼å±ķ":4241,"éĿ¢å¯¹":4242,"Ġcons":4243,"Ġac":4244,"ãĢĭãĢģãĢĬ":4245,"å¿½":4246,"Ġx":4247,"åľ¨çº¿è§Ĥçľĭ":4248,"ĠĊĠĊ":4249,"å¹¿åĳĬ":4250,"é¦ĸæ¬¡":4251,"åį«çĶŁ":4252,"data":4253,"####":4254,"ç¢³":4255,"æĥĳ":4256,"çģŃ":4257,"2020":4258,"ility":4259,"ml":4260,"Ġrem":4261,"éºĹ":4262,"Ġtest":4263,"éĦī":4264,"è¿¹":4265,"çĲ´":4266,"ÑĢ":4267,"Ġdif":4268,"åĨĴ":4269,"çĻĮ":4270,"ç¢İ":4271,"åĮĸåŃ¦":4272,"05":4273,"å®Ŀå®Ŀ":4274,"éĢĴ":4275,"åĪĨä¸º":4276,"åĲĪåĲĮ":4277,"æ¦Ĥå¿µ":4278,"æ·±åħ¥":4279,"ãĢģâĢľ":4280,"ç¦®":4281,"è®°å½ķ":4282,"Ġinv":4283,"ä¸Ģä½į":4284,"æ£ĭ":4285,"ows":4286,"Ġplay":4287,"åĨħéĥ¨":4288,"ann":4289,"æ¨ª":4290,"47":4291,"åĨľä¸ļ":4292,"Ġsub":4293,"ble":4294,"ah":4295,"ular":4296,"æ¸ħæ¥ļ":4297,"å¾®ä¿¡":4298,"ä¹ĭå¤ĸ":4299,"Ġ_":4300,"æĸ¯çī¹":4301,"åĬ¨çī©":4302,"Ġbec":4303,"éĽĸ":4304,"æĿĳèĲ½":4305,"çĽ¸åĲĮ":4306,"èº«ä»½":4307,"åıĳæĮ¥":4308,"ä»ĵ":4309,"å¯¸":4310,"éĶģ":4311,"ier":4312,"åĨľæĿĳ":4313,"åħ¬è·¯":4314,"åĴ¨":4315,"å¥ı":4316,"çĭĢ":4317,"çīĪæĿĥ":4318,"éĻĲåĪ¶":4319,"46":4320,"è®¾æĸ½":4321,"åĲĮæĻĤ":4322,"æ°ĳä¸»":4323,"erson":4324,"äºĨä¸Ģä¸ª":4325,"æĺ¯ä¸į":4326,"å£ĵ":4327,"å·²ç¶ĵ":4328,"å¯¿":4329,"Ġinst":4330,"und":4331,"Ġafter":4332,"åĮħåĲ«":4333,"Ġthen":4334,"Pro":4335,"éĢ±":4336,"ä¸Ŀè¢ľ":4337,"Ġ199":4338,"éį":4339,"ĊĠĠĠĠĠĠĠĠĠ":4340,"roup":4341,"ä»¿":4342,"æĺİæĺŁ":4343,"æľºåĪ¶":4344,"uch":4345,"Ġ)":4346,"èĪ°":4347,"åħ¹":4348,"ç§ĳç½Ĺ":4349,"çĥı":4350,"çĿĽ":4351,"äººåı£å¯Ĩåº¦":4352,"å°ıèªª":4353,"é¡¯":4354,"å½»":4355,"æĬĢèĥ½":4356,"åľŁåľ°":4357,"çĭ¼":4358,"AS":4359,"Ġç´¢":4360,"ç¢°":4361,"alse":4362,"Ġcall":4363,"åĬĥ":4364,"æŀª":4365,"å°ĸ":4366,"ä¸ĢåĪĩ":4367,"çĽ£":4368,"AM":4369,"ident":4370,"ä»Ģéº¼":4371,"å°±åľ¨":4372,"æŃĮæĽ²":4373,"åħ±åĴĮåĽ½":4374,"åĪ°çļĦ":4375,"æľĢå¾Į":4376,"ting":4377,"95":4378,"æĻļä¸Ĭ":4379,"å¾©":4380,"èĢģå©Ĩ":4381,"éı":4382,"åľĸçīĩ":4383,"æŁ±":4384,"85":4385,"Ġspec":4386,"å°ĳå¦ĩ":4387,"åľ³":4388,"fore":4389,"æĺ¨":4390,"ä¸ĭéĻį":4391,"éĥ¡":4392,"éľį":4393,"é®":4394,"èŁ":4395,"åİ»å¹´":4396,"Ġright":4397,"çį²å¾Ĺ":4398,"Ġcould":4399,"éĥĳ":4400,"çı¾åľ¨":4401,"åŁºåľ°":4402,"åħ½":4403,"Cl":4404,"ç»ª":4405,"éĶħ":4406,"åľį":4407,"eb":4408,"åĩĮ":4409,"ä¸»æĮģ":4410,"ä¿Ħç½Ĺæĸ¯":4411,"ä¸įè¶³":4412,"åĲįåŃĹ":4413,"æĬķåħ¥":4414,"ute":4415,"ç»Łè®¡":4416,"ts":4417,"ault":4418,"æ¢¯":4419,"any":4420,"AC":4421,"æĶ¹åĸĦ":4422,"çĪ·":4423,"ĊĊĠ":4424,"æ¼Ĥ":4425,"ä½Ĳ":4426,"ä¸Ńåħ±":4427,"è£½ä½ľ":4428,"æİ¥å£¤":4429,"ä¹Ļ":4430,"å¥³çĶŁ":4431,"hes":4432,"åĬ¨åĬĽ":4433,"èªįçĤº":4434,"ä¹ı":4435,"ead":4436,"äººåľ¨":4437,"éģł":4438,"å±ķç¤º":4439,"æĭĵ":4440,"åĭ¤":4441,"èģŀ":4442,"300":4443,"ased":4444,"éħ·":4445,"çłĶç©¶å°ıç»Ħ":4446,"æ¯įäº²":4447,"ç½ĳä¸Ĭ":4448,"åĲİæĿ¥":4449,"éĤª":4450,"éĳ":4451,"ale":4452,"âĶ":4453,"67":4454,"å¦Īå¦Ī":4455,"æ»¤":4456,"å®ĮåĸĦ":4457,"æĹłè®º":4458,"è¿ĲçĶ¨":4459,"èŃĺ":4460,"æ³ģ":4461,"ä¸Ģå®¶":4462,"ä¹ĭéĹ´çļĦ":4463,"ages":4464,"çļĨ":4465,"âĨĴ":4466,"åĢ¼å¾Ĺ":4467,"Ð½":4468,"è²łè²¬":4469,"çļĦæĹ¶":4470,"å¾Ģå¾Ģ":4471,"ç¹¼":4472,"AL":4473,"åĴ¨è¯¢":4474,"éĴĵ":4475,"ç¡®ä¿Ŀ":4476,"æĪĲéķ¿":4477,"ator":4478,"ĠWh":4479,"of":4480,"Ġelse":4481,"çī©çĲĨ":4482,"åĮ»çĶŁ":4483,"åħ¬åı¸çļĦ":4484,"åĩłä¹İ":4485,"æııè¿°":4486,"æİĴåĲį":4487,"è¿Ļæ¬¡":4488,"æĴ¸":4489,"ä¸ºä¸»":4490,"çº¹":4491,"ç¨¿":4492,"çĶµèĦĳ":4493,"['":4494,"çĽ¸å½ĵ":4495,"è¯¸":4496,"amp":4497,"æĦıæĢĿ":4498,"éľ¸":4499,"ç»ıåİĨ":4500,"åľ°åįĢ":4501,"æĭ¼":4502,"æĭĨ":4503,"ĠæŀĹèĤ¯":4504,"æĪĸæĺ¯":4505,"å¹´åīį":4506,"Ġend":4507,"Tr":4508,"æĴŀ":4509,"è¿ĳåľ°å°ıè¡ĮæĺŁçłĶç©¶å°ıç»Ħ":4510,"Ġç´¢ç§ĳç½Ĺ":4511,"ĠæŀĹèĤ¯è¿ĳåľ°å°ıè¡ĮæĺŁçłĶç©¶å°ıç»Ħ":4512,"åĶ¯ä¸Ģ":4513,"æĥ³åĪ°":4514,"æķĮ":4515,"å¹¸ç¦ı":4516,"èĩºçģ£":4517,"Ġclass":4518,"é»Ħèī²":4519,"åĪ°åºķ":4520,"Ġvery":4521,"å®®":4522,"net":4523,"è¡¨æ¼Ķ":4524,"xx":4525,"çĶ·æĢ§":4526,"çĮª":4527,"ç»Łä¸Ģ":4528,"çĻ¾å®¶":4529,"ä½¿å¾Ĺ":4530,"è¯±":4531,"IP":4532,"éĮ¢":4533,"é¸Ł":4534,"æ·±åľ³":4535,"å¦ĸ":4536,"éĩĳå±ŀ":4537,"Ġwhere":4538,"çļĦæĹ¶éĹ´":4539,"èī³":4540,"ãģ®":4541,"çĨĬ":4542,"ited":4543,"æĻºæħ§":4544,"Ġgood":4545,"ative":4546,"æĿĨ":4547,"æĳĨ":4548,"iness":4549,"formation":4550,"ç´°":4551,"xt":4552,"æ®¿":4553,"Ġsee":4554,"Ġ2005":4555,"uth":4556,"èªī":4557,"çļĦäºĭæĥħ":4558,"Ġway":4559,"è¾£":4560,"èĦī":4561,"Ġmany":4562,"å½¼":4563,"çļĦå¥½":4564,"âĺ":4565,"ä»įçĦ¶":4566,"æĦıè§ģ":4567,"å¢ŀå¼º":4568,"from":4569,"Ġyears":4570,"çĻ¼çı¾":4571,"çİĽ":4572,"å¦Ļ":4573,"é£¯":4574,"ins":4575,"ren":4576,"ä¼¼ä¹İ":4577,"æļĤ":4578,"Ġob":4579,"å¹¿æ³Ľ":4580,"çĽ¸éĹľ":4581,"åį³åı¯":4582,"aking":4583,"ä¼¦çĲĨ":4584,"ç»ĺ":4585,"åħ´è¶£":4586,"Ġstud":4587,"æ²Ī":4588,"èĢĮè¨Ģ":4589,"å½Ī":4590,"br":4591,"Ġname":4592,"irect":4593,"ãĥ¼":4594,"ton":4595,"é«ĺéĢŁ":4596,"èĹ¤":4597,"åįģäºĮ":4598,"Ġsm":4599,"å¾¡":4600,"Ġlist":4601,"åĲįç§°":4602,"çĭł":4603,"ä¸įå¥½":4604,"ä¸Ģå¤©":4605,"Ġ>":4606,"åª½":4607,"oo":4608,"é¤Ĭ":4609,"the":4610,"åħģ":4611,"åħ¬å¸ĥ":4612,"æ¨ĵ":4613,"äºİæĺ¯":4614,"äººå·¥":4615,"å£°éŁ³":4616,"Ġcre":4617,"å¦Ĥä»Ĭ":4618,"åŁºäºİ":4619,"æĿ¥çľĭ":4620,"æ¾³éĹ¨":4621,"è¯¦ç»Ĩ":4622,"98":4623,"åĲ¹":4624,"æĪĲåĳĺ":4625,"åı°åĮĹ":4626,"çľ¼çĿĽ":4627,"éģ©":4628,"æĭħä»»":4629,"Ġresult":4630,"åį³ä½¿":4631,"è©ŀ":4632,"æ¡ĳ":4633,"ä¸Ńèı¯":4634,"ä¸¾è¡Į":4635,"å®ı":4636,"ç½ļ":4637,"æĭĴ":4638,"åıĳè¡¨":4639,"ä»ĸåľ¨":4640,"Ġeven":4641,"Ġnow":4642,"ä¿¡åı·":4643,"ç±»åŀĭ":4644,"äºĭä¸ļ":4645,"éī´":4646,"ãĢĭãĢĤ":4647,"æ¬¢è¿İ":4648,"ç¼ĸè¾ĳ":4649,"æŃ·åı²":4650,"åĩºçĶŁ":4651,"çļĦä¸»è¦ģ":4652,"çħ¤":4653,"æ¯ıå¹´":4654,"æµĻæ±Ł":4655,"æıĽ":4656,"rap":4657,"å«©":4658,"å¿ĥçļĦ":4659,"éĿ©åĳ½":4660,"back":4661,"åİŁåĪĻ":4662,"ç¿¼":4663,"ĠSh":4664,"è¿Ľè¡ĮäºĨ":4665,"éĩĩåıĸ":4666,"åº¦çļĦ":4667,"éĥ½åľ¨":4668,"åħĪéĶĭ":4669,"Ġloc":4670,"ç²Ĺ":4671,"éĢĲæ¸Ĳ":4672,"å¯¹æĸ¹":4673,"æ¶Īè´¹èĢħ":4674,"åįĩçº§":4675,"èĸ©":4676,"Ġmin":4677,"çİ»çĴĥ":4678,"æľĢå¥½":4679,"ä¸ĢåĲį":4680,"é«ĺä¸Ń":4681,"é«ĺæ¸ħ":4682,"çĶµæ±ł":4683,"èĮ¨":4684,"äºĭæķħ":4685,"è«¾":4686,"ï¼ĮãĢĬ":4687,"æ¯Ķä¾ĭ":4688,"å¤§éĥ¨åĪĨ":4689,".âĢĿ":4690,"other":4691,"æĦŁåĪ°":4692,"éĽķ":4693,"Ġread":4694,"è´¹çĶ¨":4695,"çį»":4696,"åĢĭäºº":4697,"å¤įæĿĤ":4698,"é¼»":4699,"ä¹ĥ":4700,"èĤ¡ç¥¨":4701,"æĺ¯ä»Ģä¹Ī":4702,"åłĨ":4703,"pos":4704,"Ðº":4705,"æŃ¤æ¬¡":4706,"æľŁçļĦ":4707,"èĲĦ":4708,"åĵ²":4709,"Name":4710,"åħįè²»":4711,"ä¾ĽåºĶ":4712,"èĤ¯å®ļ":4713,"åįļçī©":4714,"09":4715,"ãĢĤï¼Ī":4716,"ä¼ı":4717,"ĠAnd":4718,"èħ¹":4719,"åĬłçĽŁ":4720,"Ġtrans":4721,"æµ´":4722,"çļĦæĥħ":4723,"Ġ2006":4724,"æ°§åĮĸ":4725,"ĠCl":4726,"ĠAl":4727,"Ġpublic":4728,"èĳ£äºĭ":4729,"å±Ĩ":4730,"ES":4731,"Ġav":4732,"æĬĢå·§":4733,"çļĦå¿ĥ":4734,"æĶ¾åľ¨":4735,"Ġ\"\"\"":4736,"éĥŃ":4737,"oh":4738,"éĻ¶":4739,"ience":4740,"éĩįå¤§":4741,"çĪ½":4742,"atic":4743,"èĳ¡èĲĦ":4744,"ĠIf":4745,"æº¶":4746,"éħįåĲĪ":4747,"alk":4748,"åŁİåĮº":4749,"è¿ŀç»Ń":4750,"æĲľç´¢":4751,"èĲ¥åħ»":4752,"43":4753,"plic":4754,"æ»´":4755,"æµģç¨ĭ":4756,"ç»´æĬ¤":4757,"å°ıçļĦ":4758,"æľºåħ³":4759,"ines":4760,"å»ī":4761,"éģĩåĪ°":4762,"çĲĨå¿µ":4763,"çİ°å®ŀ":4764,"Ġï¼Į":4765,"åĭ¢":4766,"åī©":4767,"uring":4768,"åįıè®®":4769,"']":4770,"ç¯®":4771,"æľīæīĢ":4772,"æĺ¯çĶ±":4773,"å¹¿ä¸ľ":4774,"ï¼ģï¼ģ":4775,"åħ¬å¼Ģ":4776,"æľīäºĨ":4777,"çĪ¶äº²":4778,"Ġbecause":4779,"å¼Ħ":4780,"åįıä¼ļ":4781,"ç¹Ķ":4782,"val":4783,"oid":4784,"æĹ¥å¸¸":4785,"è£¤":4786,"ody":4787,"ä»¤äºº":4788,"ä¼ĺç§Ģ":4789,"Ġ12":4790,"åĩ¤":4791,"èģĬå¤©":4792,"ä¸įéģİ":4793,"å¤º":4794,"çĽĪ":4795,"è§Ĥå¯Ł":4796,"Ġexper":4797,"æĸ·":4798,"èº«ä¸Ĭ":4799,"åĲĮæł·":4800,"Ġhim":4801,"ä¸įçĶ¨":4802,"essage":4803,"ä¸įéĶĻ":4804,"å¥³åĦ¿":4805,"å¨ĥ":4806,"èĭ±åľĭ":4807,"ray":4808,"å¹¿å·ŀ":4809,"42":4810,"å°±èĥ½":4811,"å°Ķçľģ":4812,"Ġlong":4813,"ç¥Ŀ":4814,"åİ»äºĨ":4815,"ond":4816,"æ¨¡åŀĭ":4817,"äººå¤§":4818,"åĬ³åĬ¨":4819,"å²Ĺ":4820,"å¹²éĥ¨":4821,"è½¦è¾Ĩ":4822,"ç¤¾æľĥ":4823,"ä»¥ä¸º":4824,"ä¸įåĨį":4825,"åľ¨ç·ļ":4826,"ÑĤ":4827,"ç±»ä¼¼":4828,"ample":4829,"éĢĨ":4830,"Ġgu":4831,"Ġdown":4832,"é©»":4833,"urrent":4834,"éĿĪ":4835,"çĤī":4836,"led":4837,"It":4838,"ason":4839,"ĠAn":4840,"éŃ¯":4841,"Ġdon":4842,"å¥ī":4843,"éªļ":4844,"ĠNew":4845,"èĩ³å°ĳ":4846,"ä¹Łå°±æĺ¯":4847,"èĢĢ":4848,"ask":4849,"æĸĩåŃĹ":4850,"èĥĥ":4851,"éĢļçŁ¥":4852,"é£İæł¼":4853,"åŃ¸çĶŁ":4854,"çĽ¸æ¯Ķ":4855,"è®©äºº":4856,"åĥħ":4857,"èµĸ":4858,"æĺ¯æĮĩ":4859,"åģ¿":4860,"åľ°çļĦ":4861,"OS":4862,"ç¯ĢçĽ®":4863,"åį¡çī¹":4864,"ä¸ĭä¸Ģ":4865,"åĪ«äºº":4866,"çľł":4867,"ric":4868,"è´¯":4869,"Ġdid":4870,"åĽŀåĪ°":4871,"èĩªæĪĳ":4872,"åĩºåı£":4873,"è¡¨è¾¾":4874,"Ġ2008":4875,"alth":4876,"çĶŁéķ¿":4877,"ä¸įçŁ¥":4878,"å§Ķåĵ¡":4879,"æ¼Ķåĩº":4880,"éĵº":4881,"ouse":4882,"æĽ¾ç»ı":4883,"æĸĩæĺİ":4884,"è¿ħéĢŁ":4885,"åĬ¨ä½ľ":4886,"çļĦæĸ¹æ³ķ":4887,"æĳĩ":4888,"æĻĤåĢĻ":4889,"èĩ£":4890,"éĹª":4891,"2007":4892,"opy":4893,"æĽ´æĺ¯":4894,"æĸĩåŃ¦":4895,"éĢĻäºĽ":4896,"éºµ":4897,"ä»£çĲĨ":4898,"èĥĨ":4899,"é£¾æ¼Ķ":4900,"gram":4901,"æĢĸ":4902,"åħ¬åĽŃ":4903,"Ġpol":4904,"å¹«":4905,"åĽ½äº§":4906,"åĻ¨çļĦ":4907,"ä¸¾åĬŀ":4908,"è§Ĵåº¦":4909,"Ġaw":4910,"å¾Īå¥½":4911,"æģ¢å¤į":4912,"è¢Ń":4913,"ey":4914,"æĢĴ":4915,"å¥´":4916,"åĪĨç±»":4917,"æ¶īåıĬ":4918,"cept":4919,"æ¸¡":4920,"vent":4921,"æĮº":4922,"çłĶåıĳ":4923,"åĤ·":4924,"çĪ±æĥħ":4925,"èģ½":4926,"è´¸æĺĵ":4927,"åĭĿ":4928,"èĳī":4929,"è¶ĭåĬ¿":4930,"ä¸»è§Ĵ":4931,"çªģçł´":4932,"ivers":4933,"gan":4934,"ä½ĵçļĦ":4935,"éĽ²":4936,"å¦»åŃĲ":4937,"ider":4938,"åħĥç´ł":4939,"ĠQ":4940,"08":4941,"97":4942,"æĸ¹éĿ¢çļĦ":4943,"fo":4944,"åĹİ":4945,"Ġfind":4946,"log":4947,"å»³":4948,"æĵ¦":4949,"æĪĪ":4950,"æģĲæĢĸ":4951,"åĢ¾":4952,"dd":4953,"ç¦»å¼Ģ":4954,"è¾²":4955,"usiness":4956,"èĲ½å®ŀ":4957,"åıĳå±ķçļĦ":4958,"éŁĵåľĭ":4959,"è°ĭ":4960,"èĴ¸":4961,"åģ·æĭį":4962,"æŁı":4963,"çĻ¾å®¶ä¹Ĳ":4964,"åįļå£«":4965,"åľ¨æŃ¤":4966,"äº«åıĹ":4967,"åĪ©äºļ":4968,"Ġvalue":4969,"å¤§ä¼ļ":4970,"è¯ģæĺİ":4971,"çľĭçĿĢ":4972,"çĶ±æĸ¼":4973,"this":4974,"Ġ2007":4975,"land":4976,"çĮĽ":4977,"Ġgreat":4978,"ature":4979,"éĽĸçĦ¶":4980,"ç§įåŃĲ":4981,"åħ¨éĽĨ":4982,"éĿ¢ç©į":4983,"åĲĦä½į":4984,"Ġco":4985,"param":4986,"æĪĲæŀľ":4987,"åıĬåħ¶":4988,"åıĤèĢĥèµĦæĸĻ":4989,"ç¾¤ä¼Ĺ":4990,"æİ¥è§¦":4991,"èĤ¡ä»½":4992,"å¤§åŀĭ":4993,"å½±è§Ĩ":4994,"å¥ĭ":4995,"æ·ĺ":4996,"æĦŁåıĹ":4997,"æ¼¢":4998,"ä¸ĬäºĨ":4999,"åıĶ":5000,"åĵ¦":5001,"éĺ²æŃ¢":5002,"éħįç½®":5003,"æĪĲçļĦ":5004,"çĽ´åĪ°":5005,"å¾Īå¤§":5006,"Ġhigh":5007,"åĩŃ":5008,"åĦ¿åŃĲ":5009,"åĬŀçĲĨ":5010,"è¿ģ":5011,"text":5012,"Ex":5013,"å»·":5014,"ĠæĪĳ":5015,"Ġser":5016,"è®¨è®º":5017,"å¥½åĥı":5018,"çŃ¹":5019,"çĽĴ":5020,"èĿ¶":5021,"å¤ļä¸ª":5022,"æŁ³":5023,"eter":5024,"ution":5025,"çķ°":5026,"èĽĭçĻ½":5027,"å¸¸è§ģ":5028,"è½Ħ":5029,"åĸĶ":5030,"å®¶æĹı":5031,"éĩįè§Ĩ":5032,"æĤ¨çļĦ":5033,"çµķ":5034,"èµĶ":5035,"çĬ¶åĨµ":5036,"èĩªè¡Į":5037,"éªĹ":5038,"çĥ¦":5039,"æ©ĭ":5040,"å¦®":5041,"åŁ·":5042,"Ð»":5043,"path":5044,"col":5045,"å¤ł":5046,"Ġdoes":5047,"Ġsuch":5048,"Ġext":5049,"çİ¯ä¿Ŀ":5050,"Ġhand":5051,"æĹº":5052,"Ġeff":5053,"èµĦæľ¬":5054,"Ġsup":5055,"çĽĳç®¡":5056,"03":5057,"ä¹ĭä¸Ń":5058,"âĦ":5059,"ä¸¥æł¼":5060,"å°±è¦ģ":5061,"æĺŁæľŁ":5062,"åģļåĪ°":5063,"ele":5064,"èģĺ":5065,"éĻª":5066,"èĭ±éĽĦ":5067,"pg":5068,"Ġbefore":5069,"Ġ,":5070,"ä¸īå¹´":5071,"æĢĿèĢĥ":5072,"ç©´":5073,"æĢ§æĦŁ":5074,"Ġed":5075,"åŃ¤":5076,"Ġused":5077,"è§ĦåĪĻ":5078,"çº½":5079,"Ġmuch":5080,"æĽ´å¤ļçļĦ":5081,"æľºçļĦ":5082,"??":5083,"ç©Ĩ":5084,"å¤§éĻĨ":5085,"æ¶µ":5086,"ãĥ»":5087,"å«Į":5088,"å¤ĸéĥ¨éĵ¾æİ¥":5089,"åĩī":5090,"çľŁäºº":5091,"ç»ıçĲĨ":5092,"éĢĻæ¨£":5093,"æľ¬æĸĩ":5094,"å¯¹è±¡":5095,"çļĦåľ°":5096,"å½±éŁ¿":5097,"ä¿Ĭ":5098,"åľ¾":5099,"å°±åĥı":5100,"æł¡åĽŃ":5101,"ç»ıåħ¸":5102,"Ġbr":5103,"æµ·æĭĶ":5104,"æ§į":5105,"è¿ĺè¦ģ":5106,"ä¼ļæľī":5107,"æ¼Ķåĵ¡":5108,"åĪĨåŃĲ":5109,"çĦĬ":5110,"zh":5111,"èĤł":5112,"æĦĪ":5113,"ä¿¡çĶ¨":5114,"arn":5115,"Ġfl":5116,"Ġfil":5117,"Ġèİ±":5118,"äººæ°ĳåħ±åĴĮåĽ½":5119,"å¤ļç§į":5120,"Ġdec":5121,"file":5122,"ç»¿èī²":5123,"å½¢è±¡":5124,"èİİ":5125,"çĢ":5126,"èĤĿ":5127,"arket":5128,"Ġdiffer":5129,"çĤºäºĨ":5130,"åĽĽå·Ŀ":5131,"æĤ²":5132,"cond":5133,"ĠèĲĬ":5134,"ç¾İçļĦ":5135,"å»ł":5136,"è²Ŀ":5137,"Ġ*/":5138,"âĢĿãĢģâĢľ":5139,"06":5140,".\"":5141,"Ġthink":5142,"Ġagain":5143,"view":5144,"æĪĴ":5145,"çī¹å¾ģ":5146,"ruct":5147,"æ³µ":5148,"çŃĸçķ¥":5149,"ä¸ºäºº":5150,"åŀĥ":5151,"å°Īè¼¯":5152,"åıĺå¾Ĺ":5153,"åº«":5154,"ä¸Ĭä¸Ģ":5155,"æŀĿ":5156,"æĪĲåĵ¡":5157,"æĶĿ":5158,"åĪ©çĽĬ":5159,"class":5160,"çļĦä¸į":5161,"ä¸»æķĻ":5162,"æĮĸ":5163,"ĠX":5164,"by":5165,"04":5166,"å¢ĵ":5167,"åŀĥåľ¾":5168,"ä¸įäºĨ":5169,"ç·´":5170,"æĿ¥äºĨ":5171,"éļª":5172,"å±ģ":5173,"å¤©åłĤ":5174,"å¯Ħ":5175,"æĺĤ":5176,"Ġpres":5177,"åİŁæľ¬":5178,"æī°":5179,"http":5180,"ä½ľçĤº":5181,"èĬ¯":5182,"è²Į":5183,"èĴĻå±±å·¡å¤©":5184,"Ġent":5185,"ĠèĲĬèĴĻå±±å·¡å¤©":5186,"Ġèİ±èĴĻå±±":5187,"èĭ±æĸĩ":5188,"ollow":5189,"å¤Ħäºİ":5190,"çļĦå½±åĵį":5191,"å°Ŀ":5192,"ç½ĳåıĭ":5193,"åĲĲ":5194,"ç¿°":5195,"æīĭæ®µ":5196,"é©¾é©¶":5197,"çľģçº§":5198,"2006":5199,"èĲ¥éĶĢ":5200,"ä¼ĺåĮĸ":5201,"els":5202,"åĲ¯åĬ¨":5203,"æĺ¯ä¸įæĺ¯":5204,"å¤§å¤§":5205,"Ġhere":5206,"chool":5207,"è´¡":5208,"ctions":5209,"Ġday":5210,"çĲĥåĵ¡":5211,"èĦı":5212,"æĴĳ":5213,"58":5214,"è¥¿çıŃ":5215,"Ġmon":5216,"æĻĭ":5217,"2005":5218,"åĩºçı¾":5219,"è¯ķéªĮ":5220,"è¥¿çıŃçīĻ":5221,"éŃı":5222,"åħĭæĸ¯":5223,"äººçĶŁ":5224,"æĪĳæĥ³":5225,"çĽĳçĿ£":5226,"ä½ľä¸ļ":5227,"ght":5228,"Ġlast":5229,"åī²":5230,"èŀº":5231,"åįĵ":5232,"åıĮæĸ¹":5233,"èĶ¡":5234,"ä¸įç®¡":5235,"èī¯å¥½çļĦ":5236,"ired":5237,"å½ĵåīį":5238,"å¾Īå¿«":5239,"å§ĳ":5240,"èĬ¬":5241,"ä¿ĿåŃĺ":5242,"éłĪ":5243,"æĸĩçī©":5244,"æīĢå±ŀ":5245,"åŃ¦ä¼ļ":5246,"Ġ!":5247,"é»Ħéĩĳ":5248,"çī¹åĪ¥":5249,"æĮĳæĪĺ":5250,"BA":5251,"ç¶ĵæ¿Ł":5252,"çļĦåīį":5253,"Ġbel":5254,"åĪ¶å®ļ":5255,"æīĵå¼Ģ":5256,"çļĦäººåı£":5257,"->":5258,"äººå¦»":5259,"çĪ¸çĪ¸":5260,"éłĵ":5261,"========":5262,"åºĶå½ĵ":5263,"éĹľä¿Ĥ":5264,"Ġown":5265,"è¨Ĥ":5266,"æ³³":5267,"å¦Ĥæŀľä½ł":5268,"èħ°":5269,"å°¤åħ¶æĺ¯":5270,"ä¾ĿçĦ¶":5271,"æİ¢ç´¢":5272,"æ¡Ĩ":5273,"ument":5274,")ãĢĤ":5275,"èµļ":5276,"åĲĬ":5277,"å¤©å¤©":5278,"åħĦå¼Ł":5279,"åĽ°éļ¾":5280,"ä¸īçº§":5281,"åķĨæłĩ":5282,"åľ°çĲĥ":5283,"è²¸æ¬¾":5284,"oin":5285,"work":5286,"ä¸Ńåįİäººæ°ĳåħ±åĴĮåĽ½":5287,"ç¨į":5288,"ten":5289,"è¼ª":5290,"æľīä¸Ģä¸ª":5291,"åģľæŃ¢":5292,"äºĭå®ŀ":5293,"test":5294,"å°ıåŃ¦":5295,"éĩĮéĿ¢":5296,"åħ±äº§":5297,"æ±Ĺ":5298,"Ġtake":5299,"ement":5300,"èĬ³":5301,"æµ©":5302,"ä¹Ķ":5303,"ç¥¥":5304,"Ġbeing":5305,"æĪĺäºī":5306,"éĵľ":5307,"play":5308,"Ġbest":5309,"æª¢":5310,"æİ¡":5311,"çĩķ":5312,"ina":5313,"è¡£æľį":5314,"çī§":5315,"uc":5316,"åīª":5317,"éĬ·":5318,"ä¸²":5319,"æĴ¤":5320,"Wh":5321,"æ¼ĶåĶ±":5322,"éģµ":5323,"æıŃ":5324,"å¦Ĥä¸ĭ":5325,"åĽºå®ļ":5326,"Com":5327,"ç¬¬äºĶ":5328,"Id":5329,"ç«ĭåį³":5330,"æĿŃ":5331,"æĹ¶çļĦ":5332,"ET":5333,"Ġinformation":5334,"æĸĳ":5335,"ĠãĢĤ":5336,"Ġrun":5337,"æľīçĤ¹":5338,"æĹħè¡Į":5339,"We":5340,"åĩ½":5341,"åŃ©åŃĲçļĦ":5342,"æ¶¯":5343,"41":5344,"è®ºæĸĩ":5345,"å¤¢":5346,"å§¿":5347,"for":5348,"è£ħç½®":5349,"æ¼Ķåĳĺ":5350,"chn":5351,"ustom":5352,"æ»¨":5353,"æĢ»ç»Ł":5354,"ually":5355,"åħ±æľī":5356,"çº¤":5357,"yp":5358,"æµģéĩı":5359,"èĸ¦":5360,"oad":5361,"fe":5362,"ãĢĢ":5363,"çļ®èĤ¤":5364,"ince":5365,"Ġtype":5366,"èŃ¦å¯Ł":5367,"åĪºæ¿Ģ":5368,"æĮĩæłĩ":5369,"è²¨":5370,"ai":5371,"jpg":5372,"æĵĩ":5373,"æĢ§åĴĮ":5374,"éĮ¯":5375,"Ar":5376,"Ġstate":5377,"å©¦":5378,"æķ°åŃ¦":5379,"fl":5380,"Ġ18":5381,"Ġmade":5382,"å¸ħ":5383,"çĬ¯ç½ª":5384,"æĪĲçĨŁ":5385,"æĺ¯ä¸ª":5386,"éģĭåĭķåĵ¡":5387,"hip":5388,"çĶµåĬ¨":5389,"Ġthose":5390,"ç¾İä¸½":5391,"èĩªæ²»":5392,"åŃ¸æł¡":5393,"ym":5394,"åĸľæŃ¡":5395,"çĶ·å¥³":5396,"ever":5397,"åľ¨è¿Ļ":5398,"è¿Ĳè¾ĵ":5399,"Ġ11":5400,"ather":5401,"Ġmem":5402,"Ġform":5403,"Con":5404,"å¤©çļĦ":5405,"æ·»åĬł":5406,"è¯Ħè®º":5407,"ç»Ŀå¯¹":5408,"æĭ³":5409,"æ·±åº¦":5410,"1000":5411,"ä¼łæĴŃ":5412,"56":5413,"âĶĢ":5414,"è¬Ŀ":5415,"è¿ħéĽ·":5416,"Ġsim":5417,"éĶ¦":5418,"ters":5419,"éĤ»":5420,"é¡į":5421,"å¿«ä¹Ĳ":5422,"åŃ¦çĶŁçļĦ":5423,"æĦıå¤§åĪ©":5424,"çĸ¼":5425,"åĽŀçŃĶ":5426,"ä¸Ģæ®µ":5427,"æ¶Īéĺ²":5428,"çĽ¸åºĶ":5429,"Ġwhile":5430,"çĹĩçĬ¶":5431,"æŀĹéĤ£":5432,"Ġåį¡çī¹":5433,"åģļçĪ±":5434,"åĩºåİ»":5435,"ä¸ĢæĹ¦":5436,"Ġperson":5437,"Ġworld":5438,"ç¯ī":5439,"å®ĺç½ĳ":5440,"æĦŁæŁĵ":5441,"ä¸»åĬ¨":5442,"æīĢåľ¨":5443,"éĹ²":5444,"Ġåį¡çī¹æŀĹéĤ£":5445,"åı¯èĥ½ä¼ļ":5446,"çĲ³":5447,"æĥľ":5448,"åıĳè¡Į":5449,"ä¸¤ç§į":5450,"åĵŃ":5451,"æĽ´å¥½":5452,"æĬĳ":5453,"ç¢į":5454,"Ġ},":5455,"èĸª":5456,"å¤ĸçļĦ":5457,"ED":5458,"ponse":5459,"æ°Ľ":5460,"Type":5461,"èİ²":5462,"CO":5463,"æ°ĳåľĭ":5464,"åĬŀåħ¬å®¤":5465,"å£®":5466,"ä¸ĭåİ»":5467,"éĥ½å¸Ĥ":5468,"ized":5469,"å·¥ä½ľçļĦ":5470,"å¥Ķ":5471,"æĲ¬":5472,"iet":5473,"Cont":5474,"å¤©çĦ¶":5475,"èĹ¥":5476,"å°¸":5477,"çĹħæ¯Ĵ":5478,"å¼ºè°ĥ":5479,"è¥¿éĥ¨":5480,"éĤĦæĺ¯":5481,"æ··åĲĪ":5482,"æķĹ":5483,"æİ¨èĸ¦":5484,"éĻµ":5485,"imes":5486,"ä¸Ģè·¯":5487,"åŃ¦ç§ĳ":5488,"ç»Īäºİ":5489,"ream":5490,"æŁ´":5491,"att":5492,"æľīçĿĢ":5493,"æ¡Īä»¶":5494,"åĩĨç¡®":5495,"éłĨ":5496,"load":5497,"æĤł":5498,"å±±ä¸ľ":5499,"æĭĸ":5500,"RO":5501,"æĢ»æĺ¯":5502,"Ġsystem":5503,"ĠZ":5504,"ĠPl":5505,"æ¯Ķè¼ĥ":5506,"èĭ¹":5507,"err":5508,"æµĭéĩı":5509,"åľ°ä¸ĭ":5510,"Ġfam":5511,"åħ±äº«":5512,"åľ¨ä¸Ģèµ·":5513,"è¿½æ±Ĥ":5514,"è¸ı":5515,"æĵĶä»»":5516,"éĩĭ":5517,"æµ¦":5518,"åĬłæĭ¿":5519,"ç¼Ŀ":5520,"ĠFor":5521,"ethod":5522,"error":5523,"åħ¶å®ĥ":5524,"ger":5525,"çĤ¹åĩ»":5526,"date":5527,"çĸı":5528,"æīĢæľīçļĦ":5529,"ãĥ³":5530,"57":5531,"é«ĺéĽĦ":5532,"æ¸ł":5533,"æħĪ":5534,"Ġcount":5535,"å¹¶æ²¡æľī":5536,"ãĢī":5537,"éĺ¿å°Ķ":5538,"éĢ²åħ¥":5539,"US":5540,"æ¶ħ":5541,"åİŁçĲĨ":5542,"éĤ®æĶ¿":5543,"èµĦæł¼":5544,"çķ¶æĻĤ":5545,"ĠEx":5546,"çºµ":5547,"èĹĿè¡ĵ":5548,"éŁ¦":5549,"Ġeach":5550,"æĪ¿å±ĭ":5551,"æĳĺ":5552,"åįĹäº¬":5553,"ä¸Ĭè¿°":5554,"æ¯ıæ¬¡":5555,"åĨłåĨĽ":5556,"çļĦæ°´":5557,"çĲĥéĺŁ":5558,"ern":5559,"è¦ĨçĽĸ":5560,"Ġweek":5561,"è®¡ç®Ĺæľº":5562,"arm":5563,"åĿĬ":5564,"æĪĳæĺ¯":5565,"è·ĥ":5566,"Ġkey":5567,"å¼ķå¯¼":5568,"91":5569,"çī©çļĦ":5570,"å¹½":5571,"æ¯Ķè³½":5572,"âĦĥ":5573,"400":5574,"åĤ¬":5575,"æĶ¶çĽĬ":5576,"ç¼ºä¹ı":5577,"èħ¦":5578,"æŁľ":5579,"ãĢĪ":5580,"ĠAll":5581,"éĶĻè¯¯":5582,"ç«ŁçĦ¶":5583,"ä½Ī":5584,"ser":5585,"AD":5586,"èª²":5587,"çĽ¾":5588,"ĠNone":5589,"å¤ļæ¬¡":5590,"å¹³è¡¡":5591,"comm":5592,"çī©æµģ":5593,"ç³»ç»ŁçļĦ":5594,"åĲ¸æĶ¶":5595,"èĭ¹æŀľ":5596,"è£ľ":5597,"Ġsur":5598,"äººéĥ½":5599,"èĬĿ":5600,"çĲĥåĳĺ":5601,"è§£éĩĬ":5602,"å®ļä½į":5603,"63":5604,"çĽ¸äºĴ":5605,"atus":5606,"æĢ»ç»ĵ":5607,"Ġopt":5608,"velop":5609,"åı¯ä»¥åľ¨":5610,"åıī":5611,"åĵģè´¨":5612,"ait":5613,"æħ¢æħ¢":5614,"Ġå¤§":5615,"ä¹Łåľ¨":5616,"æľºåľº":5617,"press":5618,"çģĮ":5619,"ives":5620,"åĪĽä½ľ":5621,"è§£æĶ¾":5622,"èĩ³ä»Ĭ":5623,"æħķ":5624,"æĹ¥æľŁ":5625,"ĠRe":5626,"ality":5627,"Ġsom":5628,"èŀįåĲĪ":5629,"éģ¸æĵĩ":5630,"å¾½":5631,"æĢİæł·":5632,"meric":5633,"è®¤çľŁ":5634,"å°½ç®¡":5635,"åĲ»":5636,"çłĤ":5637,"å·ŀå¸Ĥ":5638,"ä¸»è¦ģæĺ¯":5639,"oot":5640,"Ġ=>":5641,"æĢĿç»´":5642,"è³£":5643,"æĺ¯æ³ķåĽ½":5644,"ä½ĵçİ°":5645,"æŃ¦åĻ¨":5646,"çĶ¢åĵģ":5647,"èĤ¿":5648,"62":5649,"æīĭæľ¯":5650,"ä¸Ī":5651,"è¬Ľ":5652,"åĪ¤æĸŃ":5653,"è¡¨æĺİ":5654,"Re":5655,"å¤§å°ı":5656,"ote":5657,"çĨŁå¥³":5658,"çĥ¤":5659,"æĵģ":5660,"PS":5661,"éĺĢ":5662,"èĤº":5663,"æī®":5664,"äºŀæ´²":5665,"éĢĤåºĶ":5666,"èįĴ":5667,"é¬¥":5668,"ä¾ĨçļĦ":5669,"æĮĩæķ°":5670,"æīĢè°ĵ":5671,"æľ¬ç«Ļ":5672,"ä¹±ä¼¦":5673,"æĳĦå½±":5674,"Ġmed":5675,"æİ¨å¹¿":5676,"æłı":5677,"org":5678,"å®ŀåĬĽ":5679,"é¢ľèī²":5680,"åļ´":5681,"æĹ¥åľ¨":5682,"åħĪè¿Ľ":5683,"çļĦä¸Ģç§į":5684,"çķħ":5685,"æĬķèµĦèĢħ":5686,"Âł":5687,"be":5688,"Ġart":5689,"ope":5690,"ç®Ń":5691,"åıĺæĪĲ":5692,"Ġdist":5693,"åĭķçķ«":5694,"è´§å¸ģ":5695,"èģĶçĽŁ":5696,"æĶ¹éĢł":5697,"åį±éĻ©":5698,"ession":5699,"Ġnumber":5700,"Ġsign":5701,"æħ¶":5702,"right":5703,"è¨İ":5704,"è¶ħçº§":5705,"ision":5706,"æľīæľº":5707,"æĭįæĳĦ":5708,"ãĢĤ<":5709,"å°¼äºļ":5710,"âĢĿâĢľ":5711,"Ġhome":5712,"æĺĨ":5713,"å¤ıåŃ£":5714,"ç²ĺ":5715,"Ġins":5716,",âĢĿ":5717,"èĩªä¸»":5718,"æŃ£æĺ¯":5719,"è¯¾åłĤ":5720,"é«ĺæł¡":5721,"ÃĹ":5722,"æĦıåĳ³":5723,"æľīå¾Īå¤ļ":5724,"çĸĨ":5725,"åŀĤ":5726,"åħ¬å®ī":5727,"å¤«å¦»":5728,"ç¥ŀç»ı":5729,"åħħæ»¡":5730,"ä¸īåįģ":5731,"åĪł":5732,"Ġlet":5733,"åĬī":5734,"åĪĹè½¦":5735,"çĪ±çļĦ":5736,"ç»ĦåĲĪ":5737,"BS":5738,"èĢĮåľ¨":5739,"æĬĢè¡ĵ":5740,"ush":5741,"æĭīæĸ¯":5742,"è¨±å¤ļ":5743,"cri":5744,"åħ¬ä¼Ĺ":5745,"æĿ¥åĪ°":5746,"çĲĨæĥ³":5747,"å¤§å¤ļæķ°":5748,"è¾ī":5749,"èĥ½éĩı":5750,"Ġdevelop":5751,"Ġchild":5752,"ä¸Ĭåįĩ":5753,"çŃĶæ¡Ī":5754,"æĸ°èģŀ":5755,"ces":5756,"åģļåĩº":5757,"ï¼ħ":5758,"ä½¿çĶ¨çļĦ":5759,"éļ¾ä»¥":5760,"ï¼īï¼ļ":5761,"Ph":5762,"return":5763,"çĤĴ":5764,"çİ¯èĬĤ":5765,"åħ·å¤ĩ":5766,"Ġval":5767,"æ¸Ľ":5768,"é¼ł":5769,"ä¸ľåĮĹ":5770,"âĢ¢":5771,"Ġsupport":5772,"åķĨåĬ¡":5773,"Ġlife":5774,"Ġcar":5775,"ness":5776,"ĠRes":5777,"ç§ĺå¯Ĩ":5778,"cm":5779,"æĺ¯æľĢ":5780,"Ġpoint":5781,"æ±ģ":5782,"Ġfollow":5783,"akes":5784,"å¸Ĥåł´":5785,"éĥ¨éķ¿":5786,"çļĦåİŁåĽł":5787,"æ²ŁéĢļ":5788,"åıĥåĬł":5789,"ween":5790,"å¸¸å¸¸":5791,"ape":5792,"çĻ¼çĶŁ":5793,"æİ¥è¿ĳ":5794,"çŁ¥åĲį":5795,"è°±":5796,"æĸ¤":5797,"IM":5798,"å¾Īéļ¾":5799,"çľī":5800,"èĥĸ":5801,"å¤©ä¸ĭ":5802,"____":5803,"éļıåĲİ":5804,"å°±ä¸ļ":5805,"åĨĽäºĭ":5806,"æĽĿ":5807,"rop":5808,"çĦ¡æ³ķ":5809,"Er":5810,"ĠBut":5811,"å¾Īæľī":5812,"æ¯ģ":5813,"å´ĩ":5814,"æĺİçĻ½":5815,"ä½Ĩåľ¨":5816,"ä¼ĺæĥł":5817,"éļ»":5818,"Ġtry":5819,"å±ķå¼Ģ":5820,"æĶ»åĩ»":5821,"ä¹Łè¦ģ":5822,"æįŁå¤±":5823,"Ġproduct":5824,"æ¨¹":5825,"çĪµ":5826,"æµħ":5827,"æľ¬æ¬¡":5828,"æµģè¡Į":5829,"æıĲéĨĴ":5830,"åķŁ":5831,"æĹ¥èµ·":5832,"è®©æĪĳ":5833,"å»ºç¯ī":5834,"ength":5835,"lease":5836,"æķ´çĲĨ":5837,"ets":5838,"é¹¿":5839,"Ġbusiness":5840,"æŃĮæīĭ":5841,"å¤©æ´¥":5842,"æ²³åįĹ":5843,"å¹´äººåı£":5844,"æľīåĵªäºĽ":5845,"gg":5846,"é¢Ħéĺ²":5847,"æ¦®":5848,"Ġtrue":5849,"å®¶äºº":5850,"Ġsk":5851,"éĩįåºĨ":5852,"Ġpass":5853,"Sh":5854,"come":5855,"ital":5856,"èĤ©":5857,"ä¿®æĶ¹":5858,"åıįæĺł":5859,"Ġke":5860,"è±Ĳ":5861,"åīĽ":5862,"tain":5863,"orn":5864,"é«®":5865,"ĠâĢĶ":5866,"çļĦä½ľçĶ¨":5867,"é®®":5868,"çľģçļĦä¸Ģä¸ªå¸Ĥéķĩ":5869,"æ»ļ":5870,"Ġfound":5871,"æģ°":5872,"Ġgl":5873,"Ġexpect":5874,"éķ¿çļĦ":5875,"è²¡":5876,"è®°å¿Ĩ":5877,"åĲĦç±»":5878,"æĦŁæĥħ":5879,"çº¿ä¸Ĭ":5880,"æĲŃéħį":5881,"å°ıç¼ĸ":5882,"æľµ":5883,"çħ®":5884,"æĽ¹":5885,"è´¢æĶ¿":5886,"Ċĉĉĉ":5887,"EC":5888,"ule":5889,"æ£®æŀĹ":5890,"ä¸»æĴŃ":5891,"co":5892,"time":5893,"éĪ":5894,"çļĦç¾İ":5895,"Ġ2009":5896,"æ²»çĲĨ":5897,"çļĦæķħäºĭ":5898,"arget":5899,"ä¸Ģèĩ´":5900,"ä¸ĬéĿ¢":5901,"èĽĩ":5902,"2021":5903,"ä¼ģæ¥Ń":5904,"æľŁå¾ħ":5905,"åİĦ":5906,"åĲ¨":5907,"ç®¡éģĵ":5908,"å¤ļå¹´":5909,"åĬłæĭ¿å¤§":5910,"è£ħä¿®":5911,"çļĦçĶŁæ´»":5912,"oog":5913,"åľ°ä½į":5914,"Ġprocess":5915,"åİ¨":5916,"51":5917,"Ġshow":5918,"ĠCon":5919,"çī¹åĪ«æĺ¯":5920,"éĽ¾":5921,"å¼ºåº¦":5922,"çĽ¤":5923,"åĽŀå®¶":5924,"æĸľ":5925,"æĢ»éĿ¢ç§¯":5926,"url":5927,"åĨłè»į":5928,"çİ²":5929,"æĺİæľĿ":5930,"æī¿æĭħ":5931,"ç¢ĳ":5932,"Ċĉĉĉĉ":5933,"éĥ½è¦ģ":5934,"çļĦåŁºç¡Ģ":5935,"\">":5936,"æĸĩçį»":5937,"è¯ģåĪ¸":5938,"éĿ¢ä¸´":5939,"åĲĮå¹´":5940,"æķ´åĲĪ":5941,"çĻĤ":5942,"Al":5943,"çµĦç¹Ķ":5944,"Ġcle":5945,"èµĽåŃ£":5946,"å¥³åıĭ":5947,"åĭŀ":5948,"å¾®åįļ":5949,"åıĳåĬ¨":5950,"éĺģ":5951,"å¿§":5952,"ify":5953,"å¤ªå¹³":5954,"Ġdel":5955,"è¾¨":5956,"59":5957,"Ġlead":5958,"ä¸ĬåįĪ":5959,"çĲª":5960,"å¥ĳ":5961,"52":5962,"æŁ¥çľĭ":5963,"çŀ¬":5964,"æ¹ĸåįĹ":5965,"Res":5966,"èĢĥçĶŁ":5967,"Ġgener":5968,"èĢģäºº":5969,"çľŁæĺ¯":5970,"«çĹ":5971,"è§ĤçĤ¹":5972,"ä»£çłģ":5973,"me":5974,"åĳĪçİ°":5975,"æ¼Ĥäº®":5976,"æŁ¯":5977,"********":5978,"riend":5979,"ccess":5980,"äººæ°ĳå¸ģ":5981,"è¿Ł":5982,"æ¡Ĥ":5983,"order":5984,"çī¢":5985,"2004":5986,"èį¡":5987,"mp":5988,"éĢļä¿¡":5989,"å¤©æ°Ķ":5990,"txt":5991,"åķªåķª":5992,"æĸ¹çļĦ":5993,"å¤§æ¦Ĥ":5994,"ä¼łå¥ĩ":5995,"èį¯çī©":5996,"ç¥Ń":5997,"æŃ¤æĹ¶":5998,"åı¯èĥ½æĺ¯":5999,"Ġsame":6000,"æĢ»äººåı£":6001,"é½¿":6002,"æ»ĭ":6003,"æľīåĪ©":6004,"æĻ®éģį":6005,"book":6006,"è§Ĥä¼Ĺ":6007,"é£ŀæľº":6008,"ĠSe":6009,"ä½ľå®¶":6010,"å°±ä¸į":6011,"ä»İäºĭ":6012,"list":6013,"èĹį":6014,"ä¾Ŀæį®":6015,"ĠAs":6016,"æĲº":6017,"åīįçļĦ":6018,"less":6019,"è½¬è½½":6020,"åıĥèĪĩ":6021,"èĪĬ":6022,"å¥½äºĨ":6023,"çļĦå¤ĸ":6024,"ç¯Ħ":6025,"Ġcour":6026,"åĬłå¿«":6027,"ä¼ģä¸ļçļĦ":6028,"è¯Ħä¼°":6029,"èĴĻåı¤":6030,"å°įæĸ¼":6031,"æĶ¶éĽĨ":6032,"éĲĺ":6033,"ç´¹":6034,"Ġreally":6035,"æīĭæ©Ł":6036,"æ±ºå®ļ":6037,"æĦıå¤ĸ":6038,"çİĦ":6039,"éı¡":6040,"61":6041,"ĠSc":6042,"äºĤ":6043,"éłģ":6044,"æł¡åıĭ":6045,"Ġtop":6046,"ven":6047,"æľĪä»½":6048,"åħļçļĦ":6049,"ä¸Ģæ¨£":6050,"æĦ¿æĦı":6051,"size":6052,"Ġstyle":6053,"è¥¿åĮĹ":6054,"è¡Ŀ":6055,"iqu":6056,"This":6057,"è¿Ī":6058,"ants":6059,"Ġdesign":6060,"BC":6061,"æĹ¶çļĦäººåı£":6062,"éĢļéģİ":6063,"uck":6064,")ãĢģ":6065,"çĭ±":6066,"æµ·æ´ĭ":6067,"èŀįèµĦ":6068,"Ġhead":6069,"çķªåı·":6070,"çĸ¯":6071,"ology":6072,"Ġdifferent":6073,"çĳŁ":6074,"è¥¿åįĹ":6075,"Ġteam":6076,"è¾ŀ":6077,"æµ·å¤ĸ":6078,"âĺħ":6079,"è¿ĲåĬ¨åĳĺ":6080,"åĬ²":6081,"ä¼Ĳ":6082,"é«ĺçº§":6083,"è®·":6084,"ä¸ŃéĹ´":6085,"rol":6086,"çºł":6087,"ä¸Ģä¸ªäºº":6088,"='":6089,"åħļåĳĺ":6090,"çľģå¸ĤéķĩåĪĹè¡¨":6091,"åıĤæķ°":6092,"å©´":6093,"å¼¯":6094,"èģĶèµĽ":6095,"èī¦":6096,"åĮħè£ħ":6097,"ä»°":6098,"æĥħåĨµä¸ĭ":6099,"éĬĢè¡Į":6100,"æĿ±äº¬":6101,"init":6102,"åħ§å®¹":6103,"èĲĮ":6104,"è¿ĩæĿ¥":6105,"æ£ī":6106,"Ġprovid":6107,"Ġ--":6108,"åĵĪåĵĪ":6109,"åĪ©çİĩ":6110,"é»ĳèī²":6111,"ä¸Ĭä¼ł":6112,"åģļçļĦ":6113,"ä¾¿å®ľ":6114,"çĽĹ":6115,"oard":6116,"çīµ":6117,"éĸĴ":6118,"çĵ·":6119,"åĲĦåľ°":6120,"èĩªæħ°":6121,"ç»ĻäºĪ":6122,"........":6123,"Ġgoing":6124,"ç®¡è½Ħ":6125,"å®ļä¹ī":6126,"çĻ½èī²":6127,"è®¿éĹ®":6128,"æ¸¸å®¢":6129,"å°Ĩä¼ļ":6130,"aj":6131,"åľ¨äºİ":6132,"Ġ2004":6133,"è¡°":6134,"æıĲåīį":6135,"OT":6136,"åĲĦä¸ª":6137,"å¤ıä»¤":6138,"æ¡Īä¾ĭ":6139,"ä¹Łèĥ½":6140,"ï¼ļãĢĬ":6141,"éĹ¹":6142,"å§¨":6143,"åħ¨æĸĩ":6144,"uss":6145,"èµ´":6146,"2003":6147,"æľŁéĸĵ":6148,"Ġcare":6149,"Ġaround":6150,"ems":6151,"è¾ĸ":6152,"åĳĢ":6153,"èµ·ä¾Ĩ":6154,"èĢģèĻİ":6155,"oogle":6156,"Ġmodel":6157,"ats":6158,"çĮľ":6159,"æĺŃ":6160,"éº¥":6161,"ailable":6162,"ists":6163,"éĥ¨çļĦ":6164,"æĹ¨":6165,"èĢģåħ¬":6166,".,":6167,"Ġvis":6168,"åĪĽå»º":6169,"å±¥":6170,"æīĢå±ŀçļĦ":6171,"èľĤ":6172,"value":6173,"Ġopen":6174,"Ġbetween":6175,"æĪ¿éĹ´":6176,"åĳ¼åĲ¸":6177,"Ġbre":6178,"unity":6179,"è½»æĿ¾":6180,"åĴª":6181,"è£ħå¤ĩ":6182,"Ġdisc":6183,"è·¯ä¸Ĭ":6184,"å¯»æī¾":6185,"ĠCol":6186,"Ġstill":6187,"çļĦå¸Ĥéķĩ":6188,"var":6189,"åľ¨ä¸Ģ":6190,"æ±Łèĭı":6191,"æĤ¬":6192,"éĸ±":6193,"ä¸ĭè¼ī":6194,"åľ°äº§":6195,"åŃŁ":6196,"çĽĨ":6197,"wh":6198,"ç¨Ģ":6199,"èĬĴ":6200,"æĢģåº¦":6201,"æ½ĺ":6202,"å¸¦çĿĢ":6203,"åĮºåĪ«":6204,"gy":6205,"æĥ³æ³ķ":6206,"Ġprogram":6207,"è¨ª":6208,"æ¸ħæľĿ":6209,"ram":6210,"87":6211,"éŃħ":6212,"èĭį":6213,"è¾½":6214,"çļĦéĤ£":6215,"æĹ§å¸Ĥéķĩ":6216,"const":6217,"ç¼´":6218,"æµ·æĭĶé«ĺåº¦":6219,"è´¢åĬ¡":6220,"æī©å¤§":6221,"Ġhtt":6222,"ä»ĬæĹ¥":6223,"é¯":6224,"Ġå¹´":6225,"åĪ©æ¶¦":6226,"æĪĸè®¸":6227,"ĠPh":6228,"çī¹æĢ§":6229,"åħĭèĺŃ":6230,"pre":6231,"cn":6232,"åĲįä¸º":6233,"æħİ":6234,"åĦĦ":6235,"ä¸Ĭä¸ĭ":6236,"æĪĺæĸĹ":6237,"sw":6238,"è´·æ¬¾":6239,"æĶ¯æĴĳ":6240,"ĊĠĠĠĠĠĠĠĠĠĠĠĠĠĠĠĠĠĠĠĠĠĠĠ":6241,"æľ¬äºº":6242,"å¾ªçİ¯":6243,"Ġboth":6244,"uff":6245,"å£°æĺİ":6246,"Ġ`":6247,"éĥ½èĥ½":6248,"éĨī":6249,"arent":6250,"æİĺ":6251,"quest":6252,"éĴ»":6253,"CD":6254,"Ġ2002":6255,"ervice":6256,"èħĶ":6257,"è¿ĩçļĦ":6258,"ç·Ĭ":6259,"è¯´éģĵ":6260,"ĠSp":6261,"è¿½è¸ª":6262,"èħ³":6263,"ä¾ł":6264,"å°Ĩåľ¨":6265,"éĿĴæĺ¥":6266,"ĊĠĠ":6267,"å¹¶ä¸įæĺ¯":6268,"ä¸¤äºº":6269,"çķ¢":6270,"æĬ¼":6271,"ä¸ŃåŃ¦":6272,"æľīä»Ģä¹Ī":6273,"Ġchar":6274,"åįļçī©é¦Ĩ":6275,"æĥħç»ª":6276,"iversity":6277,"rist":6278,"CP":6279,"è´Łè´£äºº":6280,"åĮĻ":6281,"ä¼Ļä¼´":6282,"ç³ķ":6283,"å¹´é¾Ħ":6284,"æ¼Ĩ":6285,"èİ·åıĸ":6286,"ä½įäºİæ³ķåĽ½":6287,"Ġfile":6288,"åħģè®¸":6289,"ĠAmeric":6290,"å°±æľī":6291,"åı¬å¼Ģ":6292,"å®¤åĨħ":6293,"çĻ«çĹ":6294,"ways":6295,"çĻ«çĹ«":6296,"è¾ĵåħ¥":6297,"inal":6298,"ç¡ķ":6299,"sm":6300,"Ã©":6301,"âĨĵ":6302,"çĶº":6303,"æĿı":6304,"æĵİ":6305,"éĤĦæľī":6306,"ä¼ĺè´¨":6307,"çĩ¥":6308,"çºªå¿µ":6309,"æ§½":6310,"éĩĮæĸ¯":6311,"éĤ®æĶ¿ç¼ĸçłģä¸º":6312,"].":6313,"çĶµåĬĽ":6314,"Ġ2003":6315,"æ¼«çķ«":6316,"å¬":6317,"å¼ºçļĦ":6318,"åľºæĻ¯":6319,"è£Ķ":6320,"äººåĵ¡":6321,"çĳª":6322,"å°ºå¯¸":6323,"Ġmust":6324,"åĴĮå¹³":6325,"çĶµæºĲ":6326,"æıĲä¾ĽäºĨ":6327,"ittle":6328,"æŁĲäºĽ":6329,"ared":6330,"å¤¹":6331,"çĺ¤":6332,"åįĬå¹´":6333,"ä¾¯":6334,"ä¹ĭä¸ĭ":6335,"è¯ĨåĪ«":6336,"ãĢįãĢģ":6337,"çķĻä¸ĭ":6338,"æ¾¤":6339,"æĪ¿åŃĲ":6340,"å¦Ĩ":6341,"åŃ¸éĻ¢":6342,"ION":6343,"gs":6344,"lement":6345,"é°":6346,"åİŁæĿ¥":6347,"å·ŀå¸Ĥéķĩ":6348,"å²³":6349,"åŁİéķĩ":6350,"è²´":6351,"Ġ%":6352,"ï¼ļãĢĤ":6353,"reen":6354,"åŃ¦æľ¯":6355,"è¼¸":6356,"é£¯åºĹ":6357,"53":6358,"Ġsay":6359,"çĽĳæİ§":6360,"Ġpost":6361,"èŃ¦æĸ¹":6362,"ä¸įæľĥ":6363,"ä¸ľæĸ¹":6364,"åı°ä¸Ń":6365,"èļĢ":6366,"çĬ¹":6367,"And":6368,"çĶŁå¹³":6369,"æķħéļľ":6370,"è¿ĽæŃ¥":6371,"Ġmarket":6372,"è»Ł":6373,"èī²å½©":6374,"æĴĴ":6375,"è¾°":6376,"åľ¨ä¸ŃåĽ½":6377,"éĽľ":6378,"Data":6379,"æĮ¡":6380,"åħ¬ä¸»":6381,"é¡§":6382,"ä¹ĭéĸĵ":6383,"åŁĭ":6384,"è¦ºå¾Ĺ":6385,"Ġbook":6386,"èĤĸ":6387,"åĲĮä¸Ģ":6388,"æĺ¯æľī":6389,"éĥ¨èĲ½":6390,",\"":6391,"ä¸įä¹ħ":6392,"bers":6393,"å£³":6394,"Ġbuild":6395,"åŃĿ":6396,"Ġsl":6397,"96":6398,"èº«è¾¹":6399,"é¢Ħæµĭ":6400,"ä¸ĵéĹ¨":6401,"è¿ĳæĹ¥":6402,"new":6403,"ross":6404,"54":6405,"æ¯ıä¸Ģ":6406,"Ġmod":6407,"Ġassert":6408,"ç¢¼":6409,"Ġusing":6410,"Error":6411,"åľŁå£¤":6412,"æł¹æĵļ":6413,"å¤ªå¤ļ":6414,"åĲĪæ³ķ":6415,"å¤ĸäº¤":6416,"ç¡®å®ŀ":6417,"å±¬æĸ¼":6418,"å±ħä½ı":6419,"æĪĲåĪĨ":6420,"åĽĽä¸ª":6421,"å¾Įä¾Ĩ":6422,"åĽłèĢĮ":6423,"å½©ç¥¨":6424,"éĥģ":6425,"å¹¹":6426,"æľīæ²¡æľī":6427,"æķ°éĩıä¸ºäºº":6428,"par":6429,"éĲµè·¯":6430,"An":6431,"åįģå¹´":6432,"ä¼ĳæģ¯":6433,"é¼ĵåĬ±":6434,"orth":6435,"ä¸ºæ³ķåĽ½":6436,"æłĩå¿Ĺ":6437,"æµĨ":6438,"æĸ¯åĿ¦":6439,"æĥ¡":6440,"åĲĮæĦı":6441,"aut":6442,"å¯ĵ":6443,"æİ¥å£¤çļĦå¸Ĥéķĩ":6444,"version":6445,"args":6446,"éĥ½åı¯ä»¥":6447,"Ġcurrent":6448,"åĮ»åŃ¦":6449,"è¿ĺåı¯ä»¥":6450,"éłĤ":6451,"Ġnext":6452,"éĢĲæŃ¥":6453,"SEE":6454,"åĩºä¸Ģ":6455,"ott":6456,"é¢Ħè®¡":6457,"è¿ĳå¹³":6458,"åĤĳ":6459,"aining":6460,"è¡¥åħħ":6461,"Ġeas":6462,"cent":6463,"æĻ°":6464,"ç¶ł":6465,"è¯´çļĦ":6466,"å§Ķä¼ļ":6467,"çĥıåħĭèĺŃ":6468,"è«ĩ":6469,"å¼ķåıĳ":6470,"çł´åĿı":6471,"çİ°éĩĳ":6472,"æ³ª":6473,"ä¼ļåĳĺ":6474,"æľ´":6475,"æĹ©æľŁ":6476,"çļĦè¦ģæ±Ĥ":6477,"Ġpos":6478,"è®©ä½ł":6479,"å²ģçļĦ":6480,"ä¿±ä¹Ĳ":6481,"å¼ºåĮĸ":6482,"OP":6483,"é©±åĬ¨":6484,"åĲķ":6485,"ç§įæ¤į":6486,"Ġcase":6487,"æīįæĺ¯":6488,"æĶ¿æ²»äººçī©":6489,"è©²åľĭ":6490,"é¥®é£Ł":6491,"åĽ½å¤ĸ":6492,"ium":6493,"å·´è¥¿":6494,"çĨŁæĤī":6495,"Ġplace":6496,"çº¿è·¯":6497,"èĩ¨":6498,"éĥ¨ç½²":6499,"ä¿ĿçķĻ":6500,"ä¸įä½ı":6501,"å¸Ĥæ°ĳ":6502,"çªģåĩº":6503,"List":6504,"ced":6505,"Ġ15":6506,"ç§ĳçłĶ":6507,"åĲ³":6508,"çļĦèĥ½åĬĽ":6509,"åħ¶å¯¦":6510,"ware":6511,"2002":6512,"å¿Į":6513,"not":6514,"å®ŀåľ¨":6515,"roll":6516,"åı¯éĿł":6517,"åį¢çĵ¦":6518,"ç³Ĭ":6519,"ache":6520,"ãĢįï¼Ī":6521,"\");":6522,"æĤŁ":6523,"Ð²":6524,"Ġpur":6525,"åĭĥ":6526,"ä¼ļè®¡":6527,"])":6528,"Ġlog":6529,"ma":6530,"åĲĮå¿Ĺ":6531,"å·®å¼Ĥ":6532,"ç¾İé£Ł":6533,"INSEE":6534,"å¸Ĥéķĩç¼ĸçłģä¸º":6535,"INSEEå¸Ĥéķĩç¼ĸçłģä¸º":6536,"äº§åĵģçļĦ":6537,"åı¤ä»£":6538,"éĢ¸":6539,"æĴŃåĩº":6540,"å¤ıä»¤æĹ¶":6541,"èĳĹåĲį":6542,"æ·ĭ":6543,"76":6544,"ĠĊĊ":6545,"æ¬¡æķ°":6546,"èĶ¬":6547,"Ġthree":6548,"åĬłåĿ¡":6549,"ç²®":6550,"æ¸łéģĵ":6551,"çļĦéĤ®æĶ¿ç¼ĸçłģä¸º":6552,"æľīå¤ļ":6553,"LO":6554,"iver":6555,"é¨İ":6556,"åľ°çĤ¹":6557,"indows":6558,"å¤ķ":6559,"è´¡çĮ®":6560,"To":6561,"æĬ¥åĲį":6562,"abel":6563,"ords":6564,"åħ±äº§åħļ":6565,"ä¹Łå¾Ī":6566,"å¸ĥå±Ģ":6567,"åĮºä¸ºUTC":6568,"æĹ¶çļĦäººåı£æķ°éĩıä¸ºäºº":6569,"Ġfew":6570,"çľģçº§éĢī":6571,"äºİæĹ¶çļĦäººåı£æķ°éĩıä¸ºäºº":6572,"çļĦçłĶç©¶":6573,"éĢĿ":6574,"ä¸įå¤ļ":6575,"æĶ¶åĪ°":6576,"Ġcor":6577,"çľģçº§éĢīåĮºä¸º":6578,"æīĢå±ŀçļĦçľģçº§éĢīåĮºä¸º":6579,"å¾µ":6580,"Ġcontin":6581,"çµĲæŀľ":6582,"Ġtoo":6583,"åĩºæĿ¥çļĦ":6584,"è¯¥çľģä»½":6585,"åĳ¨æľŁ":6586,"ç²¾å½©":6587,"çłĸ":6588,"åĴ±":6589,"ä¸»æ¼Ķ":6590,"è¯¥çľģä»½ä¸ºæ³ķåĽ½":6591,"ron":6592,"æĮīæĳ©":6593,"å¤ĸæ±ĩ":6594,"opt":6595,"æĪĳåľ¨":6596,"ights":6597,"çļĦæĹ¶åĮºä¸ºUTC":6598,"æĪĸæĹ§å¸Ĥéķĩ":6599,"ç½©":6600,"çĽĳæµĭ":6601,"å®īå¾·":6602,"æŀĹåĮ¹":6603,"æĭħå¿ĥ":6604,"åįģåħ«":6605,"ĠThey":6606,"PC":6607,"åģļæ³ķ":6608,"çļĦä¸ľè¥¿":6609,"åŁºåĽł":6610,"ä¼¤å®³":6611,"è¾Ī":6612,"åĵªéĩĮ":6613,"You":6614,"èĲ¥ä¸ļ":6615,"å¤§å¹ħ":6616,"Ġ...":6617,"è¨ĵ":6618,"éĢ»":6619,"ĠBl":6620,"éģ¥":6621,"Ġfact":6622,"æ°´æŀľ":6623,"èł":6624,"çĶŁæ¶¯":6625,"åıĸæ¶Ī":6626,"å¤§åĬĽ":6627,"aving":6628,"ä¸įåľ¨":6629,"Ġwrit":6630,"éļİ":6631,"åıĥèĢĥæĸĩçį»":6632,"æĪĲéĥ½":6633,"raph":6634,"II":6635,"Ġcheck":6636,"ism":6637,"ä¸Ńæľī":6638,"ception":6639,"ä»²":6640,"è£Ļ":6641,"åºĻ":6642,"Ġmain":6643,"Ġrep":6644,"èķ¾":6645,"æĿĥåĪ©":6646,"åĳ¨åĽ´":6647,"åĪļåĪļ":6648,"éĢłåŀĭ":6649,"èµĦè®¯":6650,"åĳ³éģĵ":6651,"å¹¶åľ¨":6652,"é¤Ĳåİħ":6653,"çĶµæľº":6654,"å¤ĸåĽ½":6655,"èī¯å¥½":6656,"2022":6657,"æĹ¥åŃĲ":6658,"æ¯ıæĹ¥":6659,"èķī":6660,"çŃĭ":6661,"åģļäºĨ":6662,"è£ħé¥°":6663,"è¨´":6664,"çĤŃ":6665,"Ġreal":6666,"éĺŁä¼į":6667,"Ġfree":6668,"use":6669,"è¨»":6670,"rivate":6671,"çļĦæľĭåıĭ":6672,"icense":6673,"çłĶç©¶æīĢ":6674,"åįıè°ĥ":6675,"éĥ¨éĺŁ":6676,"åį±å®³":6677,"åģ´":6678,"äºĴåĬ¨":6679,"åħ¬äº¤":6680,"é¡ĺ":6681,"ĠOn":6682,"ç»ĳ":6683,"å¼ıçļĦ":6684,"ç¦ģæŃ¢":6685,"æĹ¶å°ļ":6686,"éĢıéģİ":6687,"éĤĢè¯·":6688,"æ¸Ĺ":6689,"SA":6690,"è¾ĵåĩº":6691,"å¸½":6692,"ç¡®è®¤":6693,"é¥±":6694,"æıĲç¤º":6695,"åĸĬ":6696,"Ġhapp":6697,"æŀĦæĪĲ":6698,"åĩºèº«":6699,"ä¼łæĦŁ":6700,"æĺ¯ä»¥":6701,"ä¼ļåľ¨":6702,"æĸ°åĬłåĿ¡":6703,"ined":6704,"åĮºçļĦ":6705,"rite":6706,"åĬłéĢŁ":6707,"Ġlot":6708,"å½°":6709,"äº¿ç¾İåħĥ":6710,"ç²¾åĵģ":6711,"function":6712,"Ġcustom":6713,"çľĭäºĨ":6714,"å°ĭ":6715,"å°±ç®Ĺ":6716,"Ġincre":6717,"éĻ£":6718,"åĽĬ":6719,"è¿ĺåľ¨":6720,"åı¥è¯Ŀ":6721,"}-":6722,"Ġadv":6723,"æ³ķåľĭ":6724,"Ġå°ı":6725,"ä¸įèī¯":6726,"</":6727,"ished":6728,"æµı":6729,"åį°è±¡":6730,"åµ":6731,"èĩŃ":6732,"æŀĹåĮ¹åħĭ":6733,"ural":6734,"æĪĢ":6735,"çī¹çļĦ":6736,"åŃĺåĤ¨":6737,"ç¨±çĤº":6738,"çľĭæĿ¥":6739,"æįĲ":6740,"ï¼ĳ":6741,"ç£ģåĬĽ":6742,"çĴ°å¢ĥ":6743,"Ġfr":6744,"éĢļéģĵ":6745,"éĢĻç¨®":6746,"ä¹Łæ²¡æľī":6747,"æĻĤä»£":6748,"UR":6749,"ister":6750,"äºĶå¹´":6751,"äºĭåĬ¡":6752,"åĽ½æ°ĳ":6753,"ç¦ıå»º":6754,"IG":6755,"çĻ¾åº¦":6756,"String":6757,"è²łè²¬ç®¡è½Ħ":6758,"html":6759,"çļĦæĥħåĨµä¸ĭ":6760,"æĹ¥æĬ¥":6761,"ä¹Łè®¸":6762,"æĹłäºº":6763,"æľĢä½İ":6764,"çĲĨçĶ±":6765,"150":6766,"ohn":6767,"æ¢¨":6768,"æīŃ":6769,"åĤħ":6770,"éĿ¢åīį":6771,"Ġsol":6772,"å®ŀéĻħä¸Ĭ":6773,"çĶµåİĭ":6774,"çŃīå¾ħ":6775,"æĦıåĳ³çĿĢ":6776,"Ġä¸Ģ":6777,"ĠFr":6778,"çĻ¼è¡Į":6779,"lection":6780,"79":6781,"86":6782,"åĪĨéħį":6783,"å¢ĥåĨħ":6784,"æ«":6785,"ĠIs":6786,"æ°¸è¿ľ":6787,"Ġreport":6788,"Ġkeep":6789,"etail":6790,"num":6791,"å¾Īå¤§çļĦ":6792,"å®ĹæķĻ":6793,"ä¸¢":6794,"thing":6795,"å¾Īå¤ļäºº":6796,"ä¸įæĥ³":6797,"çļĦä¸Ń":6798,"æŃ¸":6799,"åĨ»":6800,"fil":6801,"Ġpat":6802,"æ³Ħ":6803,"å¯¼æ¼Ķ":6804,"èħº":6805,"å¤±åİ»":6806,"çĪ¬":6807,"äºı":6808,"æµ¸":6809,"çŁ©":6810,"æĿŃå·ŀ":6811,"å¹¿å¤§":6812,"ç¬¬ä¸Ģä¸ª":6813,"æĦŁè°¢":6814,"Ġwithout":6815,"å¼ķæĵİ":6816,"æŀĦå»º":6817,"è³ĵ":6818,"çĶŁåŃĺ":6819,"Ġdirect":6820,"æ··åĩĿ":6821,"ç«Ļåľ¨":6822,"å®ŀè¡Į":6823,"ä¿±ä¹Ĳéĥ¨":6824,"},":6825,"å®ļæľŁ":6826,"Ġorder":6827,"çĶŁæ´»ä¸Ń":6828,"Ġhealth":6829,"åıĻ":6830,"åĽ¾ä¹¦":6831,"åŃ¦å®¶":6832,"å¯©":6833,"å¤§çº¦":6834,"è¿Ľåı£":6835,"Ġmonth":6836,"æ²³åĮĹ":6837,"åħ©åĢĭ":6838,"é«ĺæķĪ":6839,"åİī":6840,"éħįéŁ³":6841,"å»¶ä¼¸":6842,"éĵĿ":6843,"èĩī":6844,"Ġpay":6845,"è¡Ĺéģĵ":6846,"å´İ":6847,"å®Įç¾İ":6848,"è§Ĩè§ī":6849,"è°ĥèĬĤ":6850,"Ġ});":6851,"æĺ¯æĪĳ":6852,"ization":6853,"çĭĲ":6854,"ler":6855,"ä¸ĺ":6856,"èĻķçĲĨ":6857,"æľĢå¥½çļĦ":6858,"yn":6859,"ä½Ķ":6860,"çļĦåĲĮæĹ¶":6861,"æľīä¸ĢäºĽ":6862,"åĨ³èµĽ":6863,"éĺ³åħī":6864,"Ġduring":6865,"æĪªèĩ³":6866,"ï¼ĮãĢĮ":6867,"çĶŁç´ł":6868,"åĬŁçİĩ":6869,"ential":6870,"MA":6871,"Ġear":6872,"ä¾Ŀæ³ķ":6873,"åĽ½åĬ¡":6874,"ploy":6875,"å®Ļ":6876,"ç¸¾":6877,"ä¿±":6878,"èĪŀåı°":6879,"Ġfeel":6880,"æľĢçµĤ":6881,"é«ĺçŃī":6882,"Ġ2013":6883,"æĪĲå°±":6884,"Ġsecond":6885,"è³ŀ":6886,"ä¸ĢæĿ¡":6887,"åĭŁ":6888,"Ġcr":6889,"qual":6890,"æĩīè©²":6891,"ç»ĻæĪĳ":6892,"éª¤":6893,"Ġthings":6894,"è¶ĬåįĹ":6895,"reg":6896,"TV":6897,"å½Ń":6898,"ç¬¬åħŃ":6899,"å½ĵä¸Ń":6900,"å§Ķåĵ¡æľĥ":6901,"ä¼ļä¸Ĭ":6902,"////":6903,"MP":6904,"çĨĻ":6905,"ething":6906,"æ¥Ĭ":6907,"è¿ĺä¼ļ":6908,"å°½éĩı":6909,"è¯ŀ":6910,"åĲ«éĩı":6911,"æľĢåĪĿ":6912,"çĶµæµģ":6913,"ç¢§":6914,"ä¸ªæĢ§":6915,"ley":6916,"åĶĩ":6917,"çŁŃæľŁ":6918,"ĠInd":6919,"miss":6920,"LED":6921,"åį³å°Ĩ":6922,"Ġtechn":6923,"åħ¥åı£":6924,"æ³¨éĩį":6925,"æŃ¦æ±ī":6926,"åĬłå¤§":6927,"äº§æĿĥ":6928,"æĵģæľī":6929,"ç©·":6930,"ç«¶":6931,"åĮĢ":6932,"Ġcap":6933,"æ¨±":6934,"èĻ¾":6935,"cont":6936,"ĠAd":6937,"å¡ĳæĸĻ":6938,"æ·±åĪ»":6939,"89":6940,"æĶ¾å¼ĥ":6941,"å¹¿åľº":6942,"æĮĩæĮ¥":6943,"çĮİ":6944,"åĲ«æľī":6945,"bb":6946,"å§ĭç»Ī":6947,"ä¹łè¿ĳå¹³":6948,"èµ°åĲĳ":6949,"èµ·äºĨ":6950,"å¦ĥ":6951,"Ġavailable":6952,"æĻ´":6953,"ï¹":6954,"æĽ´å¥½çļĦ":6955,"èĵĭ":6956,"è¿ĺèĥ½":6957,"èŃ°åĵ¡":6958,"Ġposs":6959,"ä¸¦ä¸Ķ":6960,"åª³":6961,"å¤©æĸĩ":6962,"åİ¦":6963,"éĺ¿éĩĮ":6964,"ä»ĭç´¹":6965,"ä¸´åºĬ":6966,"ĠBe":6967,"ä¼Ĺå¤ļ":6968,"æµıè§Ī":6969,"éģ¸èĪī":6970,"æ°´çļĦ":6971,"ä¸ŃåĽ½çļĦ":6972,"èĳĽ":6973,"åĮĹäº¬å¸Ĥ":6974,"éĿŀæ´²":6975,"perty":6976,"ified":6977,"èµĭ":6978,"åĴ¬":6979,"æģ¨":6980,"æĺİçļĦ":6981,"å°ıåŃ©":6982,"600":6983,"åħĶ":6984,"Ġgame":6985,"å¤§éĩıçļĦ":6986,"æ¤ħ":6987,"èĤļ":6988,"æĪĳå°±":6989,"ior":6990,"util":6991,"å¯¼èĪª":6992,"ãĢĤãĢĬ":6993,"åĲ¦åĪĻ":6994,"âĹı":6995,"è¢ĸ":6996,"æĢ¨":6997,"Ġproject":6998,"é¢ģ":6999,"èīĩ":7000,"XX":7001,"è¥¿æ´ĭ":7002,"åĪ°è¾¾":7003,"ved":7004,"ç¥ŀç§ĺ":7005,"äº¤æį¢":7006,"åŃ©åŃĲä»¬":7007,"å·´é»İ":7008,"å¾ĭå¸Ī":7009,"æ¸ħæĻ°":7010,"ç¶ľ":7011,"å¯¹æŃ¤":7012,"idd":7013,"å¼Ĥå¸¸":7014,"åľĵ":7015,"è½¨éģĵ":7016,"Ġ2010":7017,"Ġoffer":7018,"çĶµè·¯":7019,"ä¸Ńèı¯æ°ĳåľĭ":7020,"çļĦæīĭ":7021,"åĲ¬åĪ°":7022,"ä¸ĸçķĮä¸Ĭ":7023,"è¶³å¤Ł":7024,"py":7025,"usic":7026,"æ¡¶":7027,"çļĦçĥŃ":7028,"çĹķ":7029,"èĻĲ":7030,"é¸£":7031,"por":7032,"åĳµ":7033,"120":7034,"å®ł":7035,"çīĪæĿĥæīĢæľī":7036,"éĢĤå½ĵ":7037,"è¨ĺèĢħ":7038,"æ¶Īå¤±":7039,"HD":7040,"æĪĳè¦ģ":7041,"æłª":7042,"ç´łè´¨":7043,"ä¹¡æĿĳ":7044,"aster":7045,"uild":7046,"å°Ŀè¯ķ":7047,"search":7048,"HE":7049,"å·¨å¤§":7050,"lex":7051,"èĩĤ":7052,"æĬ¥å¯¼":7053,"èĢĮä¸į":7054,"åĨľæ°ĳ":7055,"çĽ¸åħ³çļĦ":7056,"SS":7057,"åĺĽ":7058,"Ġprint":7059,"ç¡«":7060,"ç»ĵå©ļ":7061,"çĶ¨æĿ¥":7062,"æĢ§æł¼":7063,"æİĴè¡Į":7064,"çº¢èī²":7065,"Ġpartic":7066,"æĦıçļĦ":7067,"è®¾ç«ĭ":7068,"è¥¿äºļ":7069,"éĽ»è¦ĸåĬĩ":7070,"å®ŀéªĮå®¤":7071,"èĤĥ":7072,"èĲĿ":7073,"ane":7074,"çŃīäºº":7075,"å¸ĤåľºçļĦ":7076,"ought":7077,"æĶ¶èĹı":7078,"å¿ĥéĩĮ":7079,"çļĦä¸ĢäºĽ":7080,"èĩĢ":7081,"æĤ¦":7082,"-{":7083,"å·¥åİĤ":7084,"ï¼Īï¼Įï¼ī":7085,"Ġ30":7086,"Ġiss":7087,"å¨ĩ":7088,"åłª":7089,"äºŃ":7090,"iving":7091,"Un":7092,"æľīæĹ¶":7093,"å§ľ":7094,"Ġoper":7095,"ç¶²è·¯":7096,"æ¾³å¤§åĪ©":7097,"èĲ§":7098,"æĿī":7099,"CE":7100,"å°ıå¿ĥ":7101,"ãĢįãĢģãĢĮ":7102,"med":7103,"ĠSo":7104,"æĻĴ":7105,"ä»ĸè¯´":7106,"çº¤ç»´":7107,"åĩºå¸Ń":7108,"Ġæĸ°":7109,"è¡Įåĭķ":7110,"è°Ĳ":7111,"ribut":7112,"è§Ħå¾ĭ":7113,"å±Ī":7114,"ĠOr":7115,"ideo":7116,"å¿ħéłĪ":7117,"ä¸ĸç´Ģ":7118,"åľ¨å®¶":7119,"ä¸īå¤§":7120,"é¦Ļèķī":7121,"æ·¨":7122,"ä¸Ńå°ı":7123,"å¶":7124,"ä¸Ģæĺ¯":7125,"af":7126,"ains":7127,"ency":7128,"ä»ĸäºº":7129,"itle":7130,"æ¨¡æĭŁ":7131,"å¯Ĥ":7132,"UN":7133,"Ġlittle":7134,"å¥½å¥½":7135,"æ¯ķç«Ł":7136,"çĻ»è®°":7137,"æ··åĩĿåľŁ":7138,"éģİç¨ĭ":7139,"åĭ¾":7140,"çĥĤ":7141,"bsite":7142,"çĶ·çĶŁ":7143,"');":7144,"æĬ«":7145,"åľ¨å¤§":7146,"ĠShe":7147,"ç¿Ķ":7148,"ä¾¿æĺ¯":7149,"ä¹Łå°±":7150,"æ¬º":7151,"idth":7152,"æŁ¥è¯¢":7153,"Ġ2014":7154,"åĩºåıĳ":7155,"Ġline":7156,"èĢĮä¸įæĺ¯":7157,"ç¹¼çºĮ":7158,"çļĦåĨħå®¹":7159,"72":7160,"éĿľ":7161,"å³¡":7162,"åĪĻæĺ¯":7163,"æĬĬæı¡":7164,"éĻ°":7165,"å¿ĥä¸Ń":7166,"Ġrece":7167,"oney":7168,"Ġmet":7169,"Ġ?":7170,"Ġevent":7171,"Ġput":7172,"ĠTe":7173,"çĶ·åŃ©":7174,"Sc":7175,"().":7176,"ä½įæĸ¼è©²åľĭ":7177,"éĽ»åŃĲ":7178,"åģľè½¦":7179,"For":7180,"åĽŀæĿ¥":7181,"å¯¹æīĭ":7182,"ä½İäºİ":7183,"çĽ¡":7184,"æľºåĻ¨äºº":7185,"èİĬ":7186,"åĸ®æĽ²":7187,"åĽ´ç»ķ":7188,"é¢ĳéģĵ":7189,"Ġnull":7190,"ux":7191,"ä»ĩ":7192,"çŃĨ":7193,"æĺ¨å¤©":7194,"çŁĽ":7195,"çŁ³æ²¹":7196,"é¤ĺ":7197,"æ±¡æ°´":7198,"ĠThere":7199,"åĲĮæ¯Ķ":7200,"ral":7201,"éĢ¢":7202,"åľ°éĿ¢":7203,"çŃĴ":7204,"åĩ±":7205,"åı¸æ³ķ":7206,"ç»´æĮģ":7207,"rem":7208,"è¥¿å®ī":7209,"ä¸ĵåĪ©":7210,"ĠãĢĲ":7211,"Ġbig":7212,"éĶ¡":7213,"è¤ĩ":7214,"å°¼äºŀ":7215,"æī¹åĩĨ":7216,"ä¸įå¦Ĥ":7217,"éĸĭçĻ¼":7218,"å¼ĺ":7219,"Ġ16":7220,"é«ĺèĢĥ":7221,"éĤ£éĩĮ":7222,"ĠHow":7223,"éĭ¼":7224,"Ġincluding":7225,"æ¨¡åĿĹ":7226,"å¹¿æĴŃ":7227,"äºĭé¡¹":7228,"';":7229,"çķĶ":7230,"çľŁæŃ£çļĦ":7231,">>":7232,"åĲĪæł¼":7233,"stand":7234,"ä¿ĿèŃ·":7235,"å«ģ":7236,"ç¼Ĩ":7237,"Pl":7238,"Ġref":7239,"å¼ºå¥¸":7240,"Ġservice":7241,"å±±è¥¿":7242,"ç©ºè°ĥ":7243,"å¥¹ä»¬":7244,"åħ¨æĸ°":7245,"raw":7246,"é¢ĸ":7247,"æĪĲå¹´":7248,"åĨĻçľŁ":7249,"ä»¶äºĭ":7250,"çļĦæķ°æį®":7251,"èĮĤ":7252,"å»Ĭ":7253,"èĵĦ":7254,"åĲĮäºĭ":7255,"ä»ĸæĺ¯":7256,"ä¸Ģè¾¹":7257,"æ°Ķä½ĵ":7258,"ä¸ľåįĹ":7259,"Ġlaw":7260,"é£ŁçĶ¨":7261,"åĬį":7262,"########":7263,"åĲĦé¡¹":7264,"æīĵç®Ĺ":7265,"my":7266,"oun":7267,"èĩ³äºİ":7268,"å±Ĭåħ¨åĽ½":7269,"ç¸½çµ±":7270,"çĸ²":7271,"åĵªä¸ª":7272,"åıįå¯¹":7273,"æĬ¬":7274,"æ³Ĭ":7275,"æł½":7276,"æĹ¥çļĦ":7277,"åĵģç§į":7278,"ç¢Ĺ":7279,"ç»ĨèĬĤ":7280,"éĥ¨ä½į":7281,"å¤§åŃ¦çĶŁ":7282,"å»ºéĢł":7283,"åľ°éĵģ":7284,"è©©":7285,"OD":7286,"é¡ºåĪ©":7287,"åı¸æľº":7288,"æµģåĬ¨":7289,"åįģä¹Ŀ":7290,"Ġlove":7291,"ground":7292,"ä»¥ä¸ĬçļĦ":7293,"çº¿çļĦ":7294,"è¡Ģç®¡":7295,"äººåĬĽ":7296,"æī©å±ķ":7297,"æļĳ":7298,"ç«ĭæ³ķ":7299,"ä¸ĭäºĨ":7300,"ä¸Ģä½ĵ":7301,"Ġrequest":7302,"åĩłå¹´":7303,"éģ®":7304,"ember":7305,"æĩ·":7306,"èģ¯åĲĪ":7307,"Ġbetter":7308,"Ġalways":7309,"wit":7310,"Ġcome":7311,"åĲĪéĢĤ":7312,"ç®Ĺæ³ķ":7313,"è¯´è¯Ŀ":7314,"Ġä¸ĭè½½":7315,"ä½ľåĩº":7316,"å¹´èĩ³":7317,"åŃ£åº¦":7318,"è®°å¾Ĺ":7319,"vir":7320,"åĽŀæĶ¶":7321,"éĢĽ":7322,"å¸¦æĿ¥çļĦ":7323,"ä¸įå¤Ł":7324,"åłµ":7325,"åľ¨çº¿è§Ĩé¢ĳ":7326,"æĪĳåĴĮ":7327,"æľĢå¤ļ":7328,"Ġcreate":7329,"éģŃåĪ°":7330,"è²¼":7331,"ĠÑģ":7332,"Ġter":7333,"Ġold":7334,"assert":7335,"âĹİ":7336,"ç¾ħæĸ¯":7337,"æ¤Ĵ":7338,"æĹ¥åīį":7339,"åħ»èĢģ":7340,"AI":7341,"face":7342,"åİķ":7343,"ä¸Ĭåİ»":7344,"Ġsmall":7345,"Ġschool":7346,"Ġsomething":7347,"ling":7348,"Ġ&&":7349,"èµĮåľº":7350,"çī©åĵģ":7351,"åĽĽå¹´":7352,"èĦĨ":7353,"çļĦèĢģ":7354,"çĺ¦":7355,"Ġquest":7356,"è¿ĳå¹´æĿ¥":7357,"å¤§åĮº":7358,"Ġtri":7359,"ases":7360,"ç»´ä¿®":7361,"èıĬ":7362,"è½¬æį¢":7363,"å¤±è´¥":7364,"å§¬":7365,"çĥĪçļĦ":7366,"å®ĩå®Ļ":7367,"èµ°äºĨ":7368,"èĳ¬":7369,"å®´":7370,"ï¼ŁãĢį":7371,"Ġlevel":7372,"å¼ĢåĲ¯":7373,"å°Ĩåħ¶":7374,"ao":7375,"icle":7376,"åįģä¸ī":7377,"çĬ¬":7378,"èĬ½":7379,"Ġz":7380,"uthor":7381,"çļĦç¬¬ä¸Ģ":7382,"æīĳ":7383,"å¯¹æ¯Ķ":7384,"åħ¬æ°ĳ":7385,"ç»ĥä¹ł":7386,"äººæķ°":7387,"model":7388,"ä½ıæĪ¿":7389,"éĩĩè®¿":7390,"é¥¼":7391,"Ġeffect":7392,"éĨĩ":7393,"æĭĴç»Ŀ":7394,"Ġè¿ĳåľ°å°ıè¡ĮæĺŁ":7395,"Ġè¿ĳåľ°å°ıè¡ĮæĺŁè¿½è¸ª":7396,"é½Ĭ":7397,"ĠMar":7398,"åĤ²":7399,"æĬ¹":7400,"Ġ2012":7401,"åĨ³çŃĸ":7402,"bt":7403,"èµł":7404,"å§»":7405,"ï¼ģãĢį":7406,"æĺ¯åĽłä¸º":7407,"Ġanother":7408,"--------------------------------":7409,"Ġ100":7410,"Ġstand":7411,"atter":7412,"ä½ľæĽ²":7413,"ING":7414,"éģº":7415,"ãĤ¹":7416,"éĢ»è¾ĳ":7417,"æ¸ħæ´ģ":7418,"è®¤è¯ģ":7419,"Ġ2017":7420,"åįľ":7421,"åıĳèĤ²":7422,"ump":7423,"nect":7424,"cur":7425,"éĺĶ":7426,"Ġinterest":7427,"åĳĨ":7428,"As":7429,"Ġgot":7430,"Ġ2001":7431,"è£ķ":7432,"++":7433,"If":7434,"è®©æĪĳä»¬":7435,"è©¹":7436,"éĺ¿æĭī":7437,"æĹ©ä¸Ĭ":7438,"ä½ıå®ħ":7439,"æĮ¤":7440,"Ġrequire":7441,"ä¸ĩäºº":7442,"Ġç¬¬":7443,"éģĭåĭķæľĥ":7444,"ids":7445,"åħļå§Ķ":7446,"æľĿé²ľ":7447,"å§Ĳå¦¹":7448,"éĻķ":7449,"æľīæķĪçļĦ":7450,"irl":7451,"çļĦä¸Ģéĥ¨åĪĨ":7452,"åİŁåĪĽ":7453,"éĢıéľ²":7454,"ç¾İæľ¯":7455,"ä¸»ç®¡":7456,"åĩ¶":7457,"74":7458,"æ»©":7459,"æĢİéº½":7460,"de":7461,"éľŀ":7462,"å°ıæĻĤ":7463,"é¢Ī":7464,"è¿ĶåĽŀ":7465,"Ġcompany":7466,"åĲŀ":7467,"ĠKB":7468,"ç¿ł":7469,"ç½Ĳ":7470,"è½¬ç§»":7471,"æ±ºè³½":7472,"æĹ©é¤Ĳ":7473,"æĬķç¥¨":7474,"è¥¿æĸ¹":7475,"ava":7476,"è¯·éĹ®":7477,"Ġperform":7478,"Ġpower":7479,"åħįçĸ«":7480,"èĪĮ":7481,"æĵ´":7482,"Ġview":7483,"æĥ³è±¡":7484,"aa":7485,"84":7486,"off":7487,"å¿ĥæĥħ":7488,"æ¸ħæ´Ĺ":7489,"æĢ¡":7490,"åľĭæ°ĳ":7491,"CH":7492,"ä¸īè§Ĵ":7493,"è¡¨æĥħ":7494,"Ġfriend":7495,"å¤©ä½¿":7496,"åĦĢ":7497,"Ġsince":7498,"åįģä¸Ģ":7499,"unc":7500,"èĤª":7501,"aff":7502,"ä¿¡å¿ĥ":7503,"illion":7504,"æĹ¥èĩ³":7505,"é£ŀè¡Į":7506,"åıįèĢĮ":7507,"ä¸įæĺİ":7508,"Ġfamily":7509,"æ¯ĶåĪ©":7510,"åħ¬åĳĬ":7511,"çľģåĴĮ":7512,"ä¸įä½Ĩ":7513,"ä¸§":7514,"å·¥ä½ľäººåĳĺ":7515,"çĶŁçĶ¢":7516,"å¤§ä¼Ĺ":7517,"å¡ĺ":7518,"è§£åĨ³æĸ¹æ¡Ī":7519,"æĭĽçĶŁ":7520,"æĭĮ":7521,"ync":7522,"æ´»æĢ§":7523,"ä¾Ĩèĩª":7524,"è³ĩè¨Ĭ":7525,"ä¸¸":7526,"ä¸įèµ·":7527,"enn":7528,"åĬ«":7529,"çļĦåŁºæľ¬":7530,"æ¢¦æĥ³":7531,"è´¾":7532,"å¿ĹæĦ¿":7533,"é¼İ":7534,"çļĦé¦ĸ":7535,"èĥ½å¤ł":7536,"å§ĭå»º":7537,"åĽ½åĬ¡éĻ¢":7538,"åľ°ä¸Ĭ":7539,"ä¼ª":7540,"ç¤¾ä¼ļä¸»ä¹ī":7541,"æĹ¶åĪ»":7542,"è½¬åŀĭ":7543,"èĦĤèĤª":7544,"æİĪæĿĥ":7545,"éĢĬ":7546,"Ġwon":7547,"è¿ĳæľŁ":7548,"åįĥä¸ĩ":7549,"åħ¬å°º":7550,"æĽ´ä¸º":7551,"æĥ¨":7552,"config":7553,"73":7554,"éļľç¢į":7555,"ç´Ĳ":7556,"string":7557,"ird":7558,"æ¯ıä¸Ģä¸ª":7559,"èĢĥæł¸":7560,"åľ¨è¿ĻéĩĮ":7561,"ĠIS":7562,"èģĮå·¥":7563,"æľ¬ç§ĳ":7564,"åĪĨåĪ¥":7565,"istory":7566,"èĭ±æł¼":7567,"ç¨»":7568,"æ¬ł":7569,"Ġmight":7570,"çľĭè§ģ":7571,"åľ¨è¿Ļä¸ª":7572,"æ¯ıå¹³æĸ¹åħ¬éĩĮ":7573,"way":7574,"Ġmov":7575,"ä¾į":7576,"çĶ¨åĵģ":7577,"å°İæ¼Ķ":7578,"ä¸Ĭæ¶¨":7579,"ä¸įå¤ª":7580,"ä¸Ģç¨®":7581,"Ġwater":7582,"1999":7583,"çļĦè®¾è®¡":7584,"Ġask":7585,"Ġsure":7586,"äººç¾¤":7587,"åłħ":7588,"Ġproble":7589,"Ġorgan":7590,"éģĵå¾·":7591,"è¯´æĺ¯":7592,"å²Ń":7593,"èĮµ":7594,"åºĶå¯¹":7595,"åŁĶ":7596,"Ġfull":7597,"åĩłå¤©":7598,"Se":7599,"å¥¥è¿Ĳ":7600,"ves":7601,"è¶ħè¶Ĭ":7602,"ç°½":7603,"å¤ļåħĥ":7604,"ç»Ļä½ł":7605,"ç©¶ç«Ł":7606,"åį§":7607,"å·¨ä¹³":7608,"çĪĨçĤ¸":7609,"æĥħæĦŁ":7610,"oci":7611,"Ġdep":7612,"æıĲäº¤":7613,"Ġå¸ķ":7614,"AG":7615,"å¾Īå¥½çļĦ":7616,"è¯±æĥĳ":7617,"æĻĤæľŁ":7618,"å¾·åľĭ":7619,"icial":7620,"äºĳåįĹ":7621,"ç§»æ°ĳ":7622,"Ġgrow":7623,"å±Ĥæ¬¡":7624,"çĽ¸ä¼¼":7625,"éĶĪ":7626,"ĠDe":7627,"æıĲä¾ĽçļĦ":7628,"opyright":7629,"çĻ¾åĪĨ":7630,"ä¼łæĦŁåĻ¨":7631,"åİĺ":7632,"åı¯è§ģ":7633,"ĠÂ":7634,"è½°":7635,"Ġaut":7636,"ube":7637,"å¹³æĸ¹ç±³":7638,"ç´Ķ":7639,"Col":7640,"æŃĲæ´²":7641,"åĲĦèĩª":7642,"æİĴæĶ¾":7643,"è¾ĥå¤§":7644,"Ġnever":7645,"å·¥èµĦ":7646,"éĶ»":7647,"å®ª":7648,"å¼Ģå¿ĥ":7649,"äººå·¥æĻºèĥ½":7650,"åĲįçĤº":7651,"Ġgover":7652,"align":7653,"åĿª":7654,"éĩįçļĦ":7655,"bject":7656,"ç©ºéĸĵ":7657,"å¨±ä¹Ĳåľº":7658,"æ¸¸æ³³":7659,"åľ°éľĩ":7660,"å¤§åįĢ":7661,"äºĨä¸ĢäºĽ":7662,"çļĦå¥³":7663,"æ¶Į":7664,"åķ¥":7665,"å®īå¾½":7666,"æ°ĶåĢĻ":7667,"Ġmanag":7668,"æĢ»ä½ĵ":7669,"å¹³æĹ¶":7670,"ç´§å¼ł":7671,"åĽ¾åĥı":7672,"é©¬ä¸Ĭ":7673,"èĦ«":7674,"çĤ¹çļĦ":7675,"çĽĥ":7676,"èĤ¾":7677,"æĬķè³ĩ":7678,"LL":7679,"itor":7680,"éŃĶæ³ķ":7681,"æĢ»è£ģ":7682,"äº§çĶŁçļĦ":7683,"éĸ±è®Ģ":7684,"åĬ¨çĶ»":7685,"éĢĻæĺ¯":7686,"çº½çº¦":7687,"Ġcho":7688,"åįķåħĥ":7689,"æĥħäºº":7690,"éĩĩè´Ń":7691,"çļĩåĨł":7692,"æµ·åĨĽ":7693,"å¹£":7694,"äºĮæĺ¯":7695,"éĹ®é¢ĺçļĦ":7696,"MS":7697,"åħĪåĲİ":7698,"head":7699,"æĦŁè¦º":7700,"å¤§æķ°æį®":7701,"Ġhard":7702,"å·¨å¤§çļĦ":7703,"æŀļ":7704,"å¾Īå®¹æĺĵ":7705,"åįĪå¤ľ":7706,"Ġ2016":7707,"æĿĤå¿Ĺ":7708,"èĥģ":7709,"éĻĮ":7710,"92":7711,"é©ļ":7712,"å¾Īå°ĳ":7713,"ä¸ŃåĽ½äººæ°ĳ":7714,"åıĳåĩº":7715,"ç¡ħ":7716,"ately":7717,"Ġimportant":7718,"å¤ªå¹³æ´ĭ":7719,"Ġfalse":7720,"æ£²":7721,"èĻ¹":7722,"æ°¨":7723,"ĠMan":7724,"åĴĮåħ¶ä»ĸ":7725,"æĬĢæľ¯çļĦ":7726,"è´¤":7727,"é£ĺ":7728,"iven":7729,"æĬĽ":7730,"åį«æĺŁ":7731,"è¿Ŀæ³ķ":7732,"æ¼¸":7733,"éĩĿ":7734,"åĳ¨è¾¹":7735,"åħ¬åĪĨ":7736,"æ¯«ç±³":7737,"èĢģå¹´":7738,"çĶ±æŃ¤":7739,"æľįåĬ¡åĻ¨":7740,"Bl":7741,"ift":7742,"é£İæļ´":7743,"åı°åįĹ":7744,"Ġwin":7745,"ç¤ºèĮĥ":7746,"å²Ĺä½į":7747,"çĽ¸çķ¶":7748,"èª¿æŁ¥":7749,"åħ¬åľĴ":7750,"åĢŁæ¬¾":7751,"PP":7752,"Ġprof":7753,"å½¢æĢģ":7754,"ocument":7755,"åįĳ":7756,"åĻª":7757,"éłħçĽ®":7758,"Ġplan":7759,"åĲĮæŃ¥":7760,"æĬ¤å£«":7761,"itions":7762,"çŃīçº§":7763,"é©¬å±±":7764,"Ġide":7765,"å¯§":7766,"æľĢæĹ©":7767,"å°ıå§Ĳ":7768,"ä¸Īå¤«":7769,"è¯ģä¹¦":7770,"èĤ¡ä¸ľ":7771,"ours":7772,"800":7773,"state":7774,"ç®Ģä»ĭ":7775,"æ¹¯":7776,"åĮĹå¸Ĥ":7777,"è¶ħéģİ":7778,"index":7779,"éĽĨä½ĵ":7780,"On":7781,"æľ¬æĿ¥":7782,"çļĩå¸Ŀ":7783,"etwork":7784,"åįµ":7785,"è½¬åıĺ":7786,"ä¸»ä½ĵ":7787,"Ġuser":7788,"åĴ±ä»¬":7789,"çļĦä½¿çĶ¨":7790,"user":7791,"omen":7792,"èĶ¬èıľ":7793,"æ¬§åħĥ":7794,"83":7795,"åĿĲåľ¨":7796,"æ¶ĪèĢĹ":7797,"è½¬åĮĸ":7798,"æ¯ĶåĪĨ":7799,"å´Ķ":7800,"ĠUniversity":7801,"ç®ĢåįķçļĦ":7802,"çºªå½ķ":7803,"ences":7804,"åĨ¬åŃ£":7805,"æľºè½¦":7806,"ä½łä¼ļ":7807,"èģĶéĤ¦":7808,"æłĩé¢ĺ":7809,"æĬķæ³¨":7810,"éĮ¦":7811,"......":7812,"åħ¶æ¬¡":7813,"èĻļæĭŁ":7814,"å¤§éĻ¸":7815,"è¾©":7816,"ateg":7817,"åĦªæĥł":7818,"å½»åºķ":7819,"è¿ĩäºĨ":7820,"æĢ§è´¨":7821,"æ¬£èµı":7822,"å®¶åħ·":7823,"94":7824,"å»¢":7825,"æªĶ":7826,"Ġ14":7827,"åĳ½ä»¤":7828,"åĲĪéĽĨ":7829,"è£¸ä½ĵ":7830,"ä¸ĢåĲĮ":7831,"(),":7832,"æĢİéº¼":7833,"ĠâĢĺ":7834,"éĢļè®¯":7835,"APP":7836,"åĬ£":7837,"å¹¶éĿŀ":7838,"çļĦäº§åĵģ":7839,"äººåĴĮ":7840,"åĢ¡":7841,"ç¶ĵéģİ":7842,"Ġspe":7843,"Ġlocal":7844,"æĸ°çĸĨ":7845,"Ġagainst":7846,"æĸ¯ç§ĳ":7847,"çĥ¯":7848,"Ġé£¾":7849,"âĢ¦âĢ¦âĢĿ":7850,"èĢķ":7851,"éĿ¢ä¸Ĭ":7852,"åĲĪæĪĲ":7853,"å¿ħçĦ¶":7854,"ï¼Ĳ":7855,"åįģå¤§":7856,"Ġsize":7857,"è°ĥæķĻ":7858,"çĪ¶è¦ª":7859,"Ġexperience":7860,"éĥ½æ²¡æľī":7861,"ç§ĺä¹¦":7862,"æĭ¨":7863,"ients":7864,"ä¸įéľĢè¦ģ":7865,"Ġturn":7866,"èĥĢ":7867,"åĳ¨å¹´":7868,"åŃ¸ç¿Ĵ":7869,"Ġdev":7870,"éħ±":7871,"Ġsoc":7872,"è¾ĥä¸º":7873,"åŃ¦èĢħ":7874,"èĢģå¸«":7875,"æ´Ľé©¬å±±":7876,"ending":7877,"ç¿»è¯ĳ":7878,"ertain":7879,"éĹ´çļĦ":7880,"ç¶±":7881,"Ġå¸ķæ´Ľé©¬å±±":7882,"çĩĪ":7883,"å®ĺåĳĺ":7884,"ç¦»åŃĲ":7885,"æŃ¥éª¤":7886,"éĽ¶åĶ®":7887,"éĵ¸":7888,"ä¸İæİ¥å£¤çļĦå¸Ĥéķĩ":7889,"åŃ¦ä½į":7890,"å£ŀ":7891,"ç¤¾äº¤":7892,"ä¸°å¯ĮçļĦ":7893,"ention":7894,"åĨįåº¦":7895,"éĦŃ":7896,"Ġ__":7897,"æĹħå®¢":7898,"Ġcost":7899,"Ġfield":7900,"æ£ļ":7901,"èĢĥå¯Ł":7902,"åĹ¯":7903,"éľľ":7904,"éĤĵ":7905,"èĢģèĻİæľº":7906,"æ°ĳä¼Ĺ":7907,"èĸĩ":7908,"éĿĴå°ĳå¹´":7909,"éĿŀæ³ķ":7910,"å··":7911,"1998":7912,"å¾ĹåĪ°äºĨ":7913,"æ£ĢéªĮ":7914,"éĻ¢æł¡":7915,"éĩĬæĶ¾":7916,"å¹´åºķ":7917,"æīĢéľĢ":7918,"ä¸Ńå±±":7919,"åı¸ä»¤":7920,"istr":7921,"æīĩ":7922,"åı£åĳ³":7923,"æĽ°":7924,"è¿Ļå°±æĺ¯":7925,"äºĴçĽ¸":7926,"ä¾¿åĪ©":7927,"æľªä¾Ĩ":7928,"ivid":7929,"éĢ²å£«":7930,"gl":7931,"ene":7932,"æĽ´æľī":7933,"æ·Ģ":7934,"Ġgroup":7935,"æ¹ĸåĮĹ":7936,"åİŁæĸĻ":7937,"ries":7938,"ç±»çļĦ":7939,"ä¹Łåı¯":7940,"åŃ¦åĳĺ":7941,"CT":7942,"å·´å£«":7943,"åĲįåįķ":7944,"è¿ĻæĹ¶":7945,"ically":7946,"åı¹":7947,"å±ķçİ°":7948,"ç¬¬äºĮæ¬¡":7949,"åĤ³çµ±":7950,"å°¼æĸ¯":7951,"åĽ½çļĦ":7952,"æĪ¿åľ°äº§":7953,"éĻĦä»¶":7954,"éĴĻ":7955,"çĹħäºº":7956,"èªĮ":7957,"éģİåİ»":7958,"Ġrest":7959,"93":7960,"èĤ¡æĿĥ":7961,"cle":7962,"Ġpop":7963,"è´¢äº§":7964,"éģ£":7965,"å®ĥæĺ¯":7966,"Ġid":7967,"Ġobject":7968,"åīĬ":7969,"çľĭèµ·æĿ¥":7970,"vert":7971,"Ġapplic":7972,"éĶĲ":7973,"å»ºæĪĲ":7974,"ĠNo":7975,"æĶ¿åįı":7976,"ä¾£":7977,"çŁĽçĽ¾":7978,"çĽ§":7979,"çļĦçļĦ":7980,"åĸ®ä½į":7981,"éļıæĹ¶":7982,"çĶµè§Ĩåı°":7983,"IF":7984,"éĢĢä¼ĳ":7985,"æĺ¾èĳĹ":7986,"æľĪçļĦ":7987,"BN":7988,"ç¯®çĲĥ":7989,"å¥³ç¥ŀ":7990,"è®¸åı¯":7991,"å¤ļäºĨ":7992,"éĢıæĺİ":7993,"åŁºçĿ£":7994,"ories":7995,"è·¯çº¿":7996,"ä¿®å¤į":7997,"åĩºçīĪç¤¾":7998,"åªĴé«Ķ":7999,"Ġinvest":8000,"dict":8001,"è¿ĩæ»¤":8002,"æ¯ħ":8003,"åı¦ä¸Ģæĸ¹éĿ¢":8004,"Ġaccess":8005,"è¯ĬæĸŃ":8006,"ç®Ģç§°":8007,"Ġdays":8008,"åıĽ":8009,"Ġpath":8010,"={":8011,"ĊĠĠĠĠĠĠĠĠĠĠĠĠĠĠĠĠĠĠĠĠĠĠĠĠĠĠĠĠ":8012,"éĥ½å¾Ī":8013,"inst":8014,"æĪĳä¹Ł":8015,"åĪĨç¦»":8016,"ä¼ĳéĸĴ":8017,"çļĦä¸ĢåĢĭ":8018,"æķĻåłĤ":8019,"åľºæīĢ":8020,"çľĭçļĦ":8021,"é£²":8022,"çĶ»éĿ¢":8023,"Ġjob":8024,"Ġdefault":8025,"äººåı£å¯Ĩåº¦æ¯ıå¹³æĸ¹åħ¬éĩĮ":8026,"çłĶç©¶çĶŁ":8027,"ä¸ĵä¸ļçļĦ":8028,"çĹħæĥħ":8029,"ä¸Ļ":8030,"å¤§å¸Ī":8031,"71":8032,"ä¸Ĭæľī":8033,"æıĲåĪ°":8034,"è¨ĪåĬĥ":8035,"å½±éŁ³åħĪéĶĭ":8036,"å°İèĩ´":8037,"æĽĿåħī":8038,"æł¡éķ¿":8039,"æ¾³æ´²":8040,"èĪīè¡Į":8041,"çĽ²":8042,"èĹī":8043,"å¼Ģåħ³":8044,"æ©¡":8045,"é§Ĳ":8046,"è°¨":8047,"èģª":8048,"ability":8049,"å·¥åķĨ":8050,"action":8051,"GB":8052,"umn":8053,"æ¨¡çī¹":8054,"ä¸»ç¾©":8055,"èª¤":8056,"èŃ¯":8057,"ç¿ģ":8058,"Ġwebsite":8059,"éĦ°":8060,"å¿«æĴŃ":8061,"èĤĮèĤī":8062,"å®Įæķ´çīĪ":8063,"çį¨ç«ĭ":8064,"å°Ĭéĩį":8065,"åıł":8066,"uro":8067,"Ġunt":8068,"åĨĻä½ľ":8069,"mit":8070,"æķµ":8071,"æĹłçº¿":8072,"ograph":8073,"åĪ©äºŀ":8074,"å²¡":8075,"æ±Łè¥¿":8076,"åįģåħŃ":8077,"æµ·å²¸":8078,"åħ¬çĽĬ":8079,"Ġonline":8080,"å°ĨåĨĽ":8081,"çªĿ":8082,"å©ļå§»":8083,"ä¸ĬçıŃ":8084,"iam":8085,"æ¡£æ¡Ī":8086,"outh":8087,"çĶµåķĨ":8088,"æ©Łæ§ĭ":8089,"ocus":8090,"å¯¨":8091,"èĮ²":8092,"åİĤå®¶":8093,"å±ģèĤ¡":8094,"åĸĤ":8095,"æĭīåħĭ":8096,"NA":8097,"æĶ¹è¿Ľ":8098,"ç¡¬ä»¶":8099,"itional":8100,"çº·çº·":8101,"åľĺé«Ķ":8102,"arge":8103,"è´Ńçī©":8104,"ä¸Ģåľº":8105,"è§¸":8106,"æľ¬åľ°":8107,"ĠåĴĮ":8108,"ä¼°è®¡":8109,"ï¼īï¼Ľ":8110,"[\"":8111,"èĢĮå·²":8112,"é²į":8113,"ç§ĳåŃ¸":8114,"ç·¯":8115,"å¤©ç©º":8116,"åĮĹèµ·":8117,"å¸Ĥå§Ķ":8118,"ä¸ľäº¬":8119,"åŁºæľ¬ä¸Ĭ":8120,"ä¸įå¾Ĺä¸į":8121,"å¥³å£«":8122,"ä¸ĵé¢ĺ":8123,"åĲĮåŃ¦ä»¬":8124,"åĩ°":8125,"isk":8126,"è®©ä»ĸ":8127,"è¡Įç¨ĭ":8128,"è©¢":8129,"åºŀ":8130,"å§ļ":8131,"çļĦæĻĤåĢĻ":8132,"é¡µéĿ¢":8133,"ä¸Ģä»½":8134,"èĳĹä½ľ":8135,"ports":8136,"è·ĿéĽ¢":8137,"å¤©ä¸»æķĻ":8138,"éĽŀ":8139,"æ³ķè§Ħ":8140,"ç¬¬ä¸ĥ":8141,"ä¿Ŀåģ¥":8142,"æł·åŃĲ":8143,"åī§æĥħ":8144,"åį¸":8145,"Ġä¸Ń":8146,"é¦¨":8147,"CC":8148,"HT":8149,"åŃ«":8150,"ç£·":8151,"äººå®¶":8152,"Ġexp":8153,"He":8154,"åģ¶åĥı":8155,"ä¼łç»ŁçļĦ":8156,"å½ĵå¹´":8157,"ä¸¤å¹´":8158,"åŁºå±Ĥ":8159,"Ġstring":8160,"é´":8161,"éļ±":8162,"Ġless":8163,"æ½Ķ":8164,"èŁ¹":8165,"çİ°åľ¨çļĦ":8166,"æĺ¯è¦ģ":8167,"Ġprovide":8168,"è¾ħåĬ©":8169,"({":8170,"icro":8171,"Ġ2015":8172,"éĩĳé¢Ŀ":8173,"ä¿¡ä»»":8174,"Ġable":8175,"ç§ģäºº":8176,"Ġprom":8177,"è¢ģ":8178,"å¯¿åĳ½":8179,"å¼ĢæĪ·":8180,"çıĬ":8181,"];":8182,"æĺ¯ä¸ĢåĢĭ":8183,"åĪ¶çļĦ":8184,"Ġgive":8185,"Ġest":8186,"ä¸įåıĬ":8187,"å¤ıå¤©":8188,"åįģäºĶ":8189,"æĵħ":8190,"è¿Ļä½į":8191}